#version: 0.2
Ġ l
o s
Ġ p
Ġ c
e r
a r
Ġ a
n t
Ġ s
a s
u e
c i
o n
e l
o r
r e
a d
Ġ m
s t
Ġl a
a l
q ue
a n
Ã ³
Ġ t
u n
Ġ y
Ġ que
e nt
i n
Ġ el
Ã Ń
i c
i d
Ġ n
Ã ¡
Ġ un
Ã³ n
Ġ h
o m
r a
r o
Ġc on
e st
Ġs e
d i
Ġ f
Ġ v
a ci
a m
e m
Ġ re
d o
Ġl os
e c
Ġp ar
i t
Ġ est
l e
Ġ o
d el
Ã ©
Ġs u
i m
Ġ del
ent e
ad o
a b
o l
Ġc om
i e
Ġ C
Ġa l
Ġp or
Ġ E
a t
Ġ b
Ġl as
i s
i l
Ġpar a
Ġ g
aci Ã³n
Ġ in
i v
Ã ±
Ġ A
Ġun a
nt e
s p
Ġ P
Ġn o
Ġ S
ÃŃ a
Ġ di
u l
Ġm e
â Ģ
t e
a c
i r
ie n
Ġp ro
Ġ M
on e
q u
t a
s e
i st
i g
i ci
t o
i o
Ã¡ s
id ad
Ġp er
Ġ L
u r
one s
re s
ad a
Ġl o
i a
u c
o d
i z
l o
Ã º
al e
ci Ã³n
s c
i er
e x
Ġa c
l a
Ġ D
Ġc u
Ġc o
ic a
an do
i b
g o
n ci
Ġcom o
em p
i ent
Ġ (
Ġ 1
ale s
Ġ ex
id o
Ġm Ã¡s
e t
Ġ 2
Ġ T
u t
c e
or m
u s
. .
Ġt e
er a
n d
a j
e sp
Ġp r
ue st
ad os
ic o
Ġ R
Ġh a
or e
d a
r an
b re
Ġs er
a nt
Ġ B
Ġl e
Ġ r
u m
Ġ j
i nt
o c
e d
Ġs o
i Ã³n
r as
Ġ G
er o
ore s
Ġ N
e b
u ra
Ġ I
Ġt ra
Ġ âĢ
Ġp ue
Ġ F
Ġ ent
Ġp re
Ġcom p
Ġa p
Ã¡ n
i os
e sc
r os
Ġco nt
g u
s o
o t
u d
Ġ esp
v e
ient o
ien e
m o
am b
im p
Ġ qu
u er
Ġs i
a nte
nci a
ec t
n a
e ci
a p
b l
n o
Ġ int
le s
n er
e z
âĢ Ŀ
i p
e j
0 0
id a
n c
Ġsu s
u y
h o
a Ã±
Ġ H
am os
ec e
c t
am ente
Ġo t
Ġ V
Ġ ar
Ġest e
Ġh ac
n s
em os
on al
aci ones
Ġ J
Ġh ab
Ġa Ã±
Ã© n
Ġre c
Ġt od
Ġpue d
Ġ U
or a
ĠâĢ ľ
Ġp e
Ġ imp
ente s
p er
ĠE l
a y
g ar
Ġper o
Ġa m
i f
Ġpued e
o do
u st
e f
ad as
e nc
Ġs in
er e
Ġc as
u nt
Ġl le
ar a
ar io
Ġs on
Ġv er
Ã© s
ĠL a
al iz
Ġent re
Ġper s
amb i
ul t
Ġp as
Ġ enc
Ġp od
E l
z a
or t
g un
v er
d os
Ġ O
Ġest a
Ãº n
n os
Ġa s
Ġso bre
e p
Ġt iene
Ġ Â
l as
l os
an a
e g
Ġc ar
ent o
Ġ esc
Ġm is
0 1
ic os
Ġs ol
Ġm an
uc h
in a
Ġo b
ĠE st
Ġ or
iv o
Ġp res
m a
d eb
f orm
Ġ emp
ci ones
e v
ue v
.. .
d ad
ic as
Ġn os
Ġcon s
Ġn uest
c h
n e
g e
Ġ deb
ue nt
Ġm i
on d
Ġac t
u al
Ġa d
Ġy a
b aj
d uc
u p
r ar
m ente
ci a
Ġm uy
g a
Ġc re
o y
ambi Ã©n
Ġf orm
ab a
Ġt odo
c o
c a
ece s
u b
er m
ad or
Ġpr im
Ġp os
l ar
id e
Ġte n
Ġ 3
Ġ "
an o
t os
s d
L a
Ġp a
o nt
Ġs al
e sd
ĠE n
esd e
as ta
c ul
Ġf ue
t er
Ġt u
Ġa b
Ġin c
Ġre s
i as
Ġme j
s a
Ġint er
ist a
Ġf in
Ġpers on
Ġest Ã¡
Ġpar t
ÃŃ as
Ġn uev
p l
Ġm ar
Ġc ol
Ġ2 01
Ġtra baj
u di
o g
Ġc or
j o
Ġpro p
idad e
Ġa n
idade s
ec h
nte s
ab le
d ic
ci on
Ġ Y
e se
Ġt ambiÃ©n
d er
Ġg ran
id os
e ner
ĠaÃ± os
iv a
ar ios
r it
Ġha y
Ġme di
Ġo f
Ġt i
d esde
Ġs ig
Ġ desde
i Ã³
in o
ond e
ien do
ro l
Ġre sp
Ġc al
Ġn i
t ar
am iento
o ci
g ra
Ġv e
Ġcu ando
it u
Ġhac er
Ġr el
Ġ us
Ġ dos
Ġcu al
a v
d ar
i on
ÃŃ t
l an
e di
ar t
ĠA l
Ġpar te
d em
s ar
Ġ -
r ib
Ġtod os
ĠC on
im a
em a
g an
E n
) .
er os
ant o
ar e
o b
Ã± o
Ġre p
Ġm un
Ġc os
Ġ Ã©
Ġh asta
ÃŃ s
Ġdi f
if ic
ĠU n
ce s
Ġre g
Ġn eces
d eci
in g
Ġc am
r Ã¡
Ġh an
ar on
Ġmej or
aj e
i ones
er c
d onde
te n
Ġm ay
Ġ deci
Ġl u
al mente
Ġ em
ip o
Ġti emp
l am
it o
Ġ 4
Ġin form
Ġ donde
Ġm uch
e ncia
Ġo p
qu ier
Ġal gun
ere s
d esp
ec to
se s
Ġhac e
) ,
u j
d esc
Ġ desp
Ġc h
Ġg ra
Ġpro duc
m it
Ġf un
Ġ desc
Ġv ez
Ġb ien
ad ores
iv os
Ġl ib
ent os
Ġb ue
ar Ã¡
re c
Ġpor que
m e
n do
Ġ 5
d ÃŃa
Ġm o
Ġc ap
Ġc ada
Ġas ÃŃ
ec ho
im o
g r
t as
Ġso ci
Ġc r
om b
Ġp ol
Ġ ej
Ġre aliz
or ia
i or
Ġtiemp o
m os
ici o
aci onal
Ġs ab
Ġex p
Ġ do
z o
ÃŃ cul
Ġc l
ici p
Ġp o
ante s
in ci
âĢ ¦
ue l
it a
Ġser v
ĠC om
in e
ve n
p e
n di
u ro
ar se
er s
ici Ã³n
Ġ dÃŃa
Ġ ev
e ndo
ĠÂ ¿
e nd
e qu
ud ad
d ej
ci o
Ġdi sp
ura nte
i ente
Ã© r
ÃŃ an
unt o
Ġ1 9
i udad
Ġun o
er v
Ġa ut
Ġt ran
Ġo c
ent ro
ĠaÃ± o
er n
s os
j e
il idad
Ġ dej
ed ad
il l
Ġv ida
Ġc uent
t ra
oc o
Ġcont ra
is mo
d ep
Ġin v
Ġ dic
Ġa nt
ib le
f e
Ġse g
Ġin st
Ġesp eci
Ġg r
Ġa h
Ġ equ
ĠS e
Ãº l
Ġlle v
Ġp la
an os
m iento
on a
id as
Ġform a
g os
or te
il iz
Ġemp res
d u
e sar
Ġ i
Ġ W
ci as
Ġinc l
ĠI n
l ic
Ġf uer
at os
ent a
ist as
Ġg ener
ĠN o
ne s
im os
Ġmis mo
Ġperson as
Ġt r
u g
Ãºl t
Ġ ra
ÃŃ n
esar rol
it ar
Ġ ro
ici os
Ġa f
Ġc a
Ġa y
Ġre f
Ãº bl
d et
Ġlu gar
emp re
Ġot ros
ul ar
ue go
e so
Ġre ci
uc ho
âĢĿ ,
ĠL os
Ġ der
Ġm at
Ġ ese
Ġmay or
Ġ dem
Ġcom un
Ġcon st
or ta
ĠC h
i al
Ġcon f
Ġm as
Ġ era
u sc
Ġc er
n as
Ġ det
e sa
s iÃ³n
Ġm om
Ã¡ t
ĠM ar
m in
an d
Ã³ m
ĠE sp
ient os
Ġc iudad
a g
ĠA r
inci p
Ġm in
il la
Ġmun do
Ã± os
Ġ 6
Ġdi st
Ġp u
Ġm ucho
Ġin f
ar d
os t
Ġt anto
E st
Ġ Ãºlt
s f
Ġdeb e
Ġ K
are s
or d
âĢĿ .
p a
Ġenc ont
d esarrol
Ġv is
Ġsol o
aÃ± a
d ef
Ã³ lo
Ġsi empre
Ġpr incip
Ġ desarrol
om bre
Ġ w
un que
Ġse gu
d urante
em ente
ĠD e
Ġ durante
Ġ dep
at o
Ġ eso
aci on
al idad
d est
Ġar t
er ÃŃa
Ġ ut
e ns
Ġte ner
Ġtrabaj o
te s
Ġc ab
v i
u Ã©s
Ġ ef
b ar
Ġp el
ec ciÃ³n
em as
r uc
Ġh ist
am il
ĠP or
Ġcuent a
Ġ dest
p o
Ġqu ier
Ġest udi
v o
Ġ Ã¡
Ġb aj
fe s
Ġ def
Ġest Ã¡n
nci as
Ġle s
Ġp l
Ġcas o
Ġse m
t or
Ġ z
Ġot ro
Ġcual quier
Ġt an
ce so
Ġme nos
Ġal go
Ġimp orta
Ġm uj
Ġv ol
Ġp oco
j os
Ġl lam
uest o
Ġs ent
Ġv al
Ġt ras
as e
ĠP ro
Ġper mit
Ġt om
Ġs ido
re ct
at e
Ġenc uent
ĠR e
ar ia
Ġnuest ro
Ġ ec
r u
Ġh aci
Ġex per
Ġ dar
an cia
n f
Ġmom ento
ĠL e
c el
p ar
u ciÃ³n
Ġh or
Ġest os
Ġpod r
Ġut iliz
Ġg ust
Ã± a
Ġse a
re nd
Ġf al
ĠE s
ol og
im iento
Ġsu per
d ec
Ġpuede n
h e
Ġs ist
er t
Ġb usc
j a
ier no
Ġy o
ab an
it al
Ġ 7
iv as
ac e
Ġ2 00
j et
Ġpro y
e nf
r i
Ġtod as
Ġpres ent
Ġl ÃŃ
ist e
om o
ur as
Ġv iv
Ġnuev o
Ġf amil
Ġnuest ra
Ġ 8
ci os
Ġ enf
erm in
ic e
al l
iv ers
ge n
Ġpro bl
ÃŃ st
Ġi nte
er as
Ġh um
Ã© c
Ġ Q
is iÃ³n
Ġor gan
em bre
ĠS i
Ġinform aciÃ³n
Ãº s
ic aciÃ³n
Ġt ipo
Ġ dec
Ġa t
b a
Ġp Ãºbl
L os
ĠC ar
Ġm al
Ġhab ÃŃa
Ġpol ÃŃt
p t
Ġest ar
Ġa gu
Ġman era
Ġact iv
us o
Ã³ mo
Ġa ntes
ch e
as t
d as
d ÃŃas
que l
an as
Ġ dÃŃas
Ġah ora
Ġest o
Ġpro fes
Ġpu bl
v Ã©s
Ġcon c
Ġ ide
ol a
Ġot ra
Ġn e
Ġprim era
Ġt res
uest a
Ġtiene n
Ġh echo
Ġdesp uÃ©s
Ġcomp le
om in
Ġ1 0
Ġsu b
Ġpa ÃŃs
c al
Ġdeci r
Ġs Ã³lo
Ġc an
Ġ ir
ier on
Ġqu Ã©
Ġ ,
Ġgr up
Ġtra vÃ©s
Ġ esa
Ġs ÃŃ
Ġgran d
Ġ 9
Ġse gun
Ġpod er
Ġre v
ci l
i el
Ġpart icip
ie s
n z
Ġ ig
er ci
Ġap ar
r im
qu ÃŃ
Ġam b
Ġa v
Ġv ar
Ġel los
Ġ .
E S
Ġgrand e
iv el
Ġun os
ect os
Ġpe ns
Ã³ g
on o
Ġot ras
Ġres ult
on s
Ġpe que
ĠL as
it os
ob ierno
g res
Ã³ r
at ur
Ġg u
Ġn ada
! !
Ġh oy
Ġa unque
Ġcon oci
Ġcor re
Ġb ar
Ġre st
Ġdif er
i entes
a z
r ado
m as
ient ras
an z
at a
est ig
r ig
Ġh e
Ġ Ã
Ġ da
Ġa quel
Ġpro gra
Ġs itu
Ġv a
Ġc amb
Ġp al
Ġte nd
Ġcas a
Ġreci b
C I
at iva
ĠI nt
m p
Ġdi sc
Ġcont in
Ġpers onal
ad r
E R
Ġt er
Ġt el
Ã¡ ct
" ,
Ġap lic
ĠÃ© l
ul o
Ġse Ã±
Ġn ivel
Ġ k
Ġse c
Ġsin o
ac t
Ġc ier
ien cia
d ed
d ese
o to
Ġest ado
Ġqu ien
Ġtod a
iz aciÃ³n
Ġp on
Ġest as
Ġap ro
Ġs ue
in as
Ġprim er
er on
Ġec on
Ġt emp
em Ã¡s
id ente
ĠD E
âĢ ľ
Ġ edi
Ġmat er
ab les
ÃŃ o
Ġad emÃ¡s
i ra
Ġcos as
Ġ dese
Ã¡ l
ent ar
Ġm ill
00 0
Ġsig u
du ci
it e
Ġmuch os
Ġa nte
Ġc el
Ġt al
ver t
e na
ech os
Ġsu p
Ġcons id
Ġdi se
Ġ Ãºn
Ġser Ã¡
h a
i le
Ġex pl
Ġ X
Ġsist ema
Ġg an
ur idad
s as
Ġc ur
ere ncia
min ist
ĠP ero
ĠA s
Ġpas ado
oc a
Ġ Z
P or
ec er
Ġm il
uy e
Ġob jet
olog ÃŃa
Ġej emp
g re
ad ora
Ġver dad
Ġh i
ot ros
A R
Ġlle g
Ġ et
d atos
uer do
an za
ĠP ara
Ġequ ipo
at ro
ÃŃ f
os a
Ã¡ m
Ã© t
O S
Ġdi rect
Ġ er
om p
p or
Ġco nte
Ġmedi o
ĠA m
Ġp lan
Ġ datos
ĠS u
Ã©c n
Ġimporta nte
u to
Ġalgun os
f ici
Ġ os
Ãº m
oc er
Ġel la
Ġt ot
Ġaut or
Ġre d
Ġcon v
Ġl ar
ĠS an
Ġm erc
ĠS al
ĠâĢ ĵ
Ġhist oria
Ġpro v
Ġcon se
ce p
Ġam ig
ici a
" .
Ġf u
Ġem bar
ur os
ech a
E N
ĠÂ ¡
Ġencont rar
Ã¡ g
Ġrep res
Ġempres a
ĠEsp aÃ±a
Ġquier e
un d
Ġtran s
Ġw eb
Ġc Ã³mo
Ġm ad
ab or
Ġnuev a
unt os
Ġn atur
N o
Ġper f
ir m
ÃŃcul o
Ġ2 0
Ġ1 5
Ġc at
Ġnuest ros
ic ar
Ġcal idad
Ġmill ones
Ġm ientras
Ġg ente
ic amente
e ta
in os
i ar
Ġfin al
ic ado
Ġhor as
Ġc ant
Ġhaci a
Ġm od
Ġay ud
Ġtra t
Ġm ante
Ġme t
i onal
O N
el l
u da
Ġm ot
Ġb e
Ġv eces
d in
ec n
ist o
Ġof re
Â »
v id
d entro
n se
Ġinter n
Ġj ue
A S
Ġdifer entes
Ġact u
Ġdic e
Ġesp er
r ut
t ura
Ġv ia
Ġest aba
re t
Ġc ult
Ġ dentro
r al
Ġdi jo
g as
Ġ id
Ġserv icios
is o
Ġse x
ig u
Ġmuch as
Ġin ici
aci o
Ġlle gar
z as
am p
ol Ã³g
Ã³ x
Ġus o
ĠC o
r om
Ġj u
A N
Ġinv estig
Ġperson a
Ġmis ma
Ġme d
m an
ra ciÃ³n
Ġ ima
Ġagu a
Ġel lo
Ġn orm
o k
Ġembar go
e o
Ġcomp aÃ±
ab l
Ġn Ãºm
Ġ1 2
Ã¡ nd
Ġserv icio
aÃ± o
âĢ Ļ
S i
ve s
r ada
Ġseg Ãºn
gu nt
at ivo
ct or
Ġme n
Ġ1 8
Ġgrup o
Ġa quÃŃ
or io
os e
Ġf re
it as
Ġpue s
Ġc ent
Ġp at
Ġt us
ĠM e
ant a
Ġcontin u
dem Ã¡s
Ġmuj eres
Ġm a
il lo
Ġfun cion
Ġf av
ĠB ar
aci dad
Ġdi sf
ra t
Ġact ual
ue la
ĠL o
se g
l or
Ġin d
Ġus u
Ġsoci al
Ġel ect
Ġpro ceso
Ġig ual
Ġla b
ort un
Ġproduc tos
Ġor ig
Ġpos ib
Ġm Ã¡
Ġejemp lo
iene s
al a
Ġc las
b ol
Ġhab it
Ġcu er
Ġp ie
Ġle y
Ġve n
Ġs it
Ġb an
Ġp ad
y a
re m
c om
Ġgra t
b r
Ġhab er
Ġque d
Ġt Ã©cn
Ġ ed
Ġj ug
un ca
Ġgener al
os iciÃ³n
u ando
b o
b le
Ġgrande s
il o
ab ilidad
Ġl uego
Ġin di
ac h
Ġpre gunt
ĠP ar
A L
Ġ din
ac to
in ar
Ġpar ece
Ġpos ible
L as
Ġfuer on
Ġdesarrol lo
ci onal
Ġf i
Ġdi rec
ent al
ul a
c l
Ġm Ã©
ĠC ol
Ġproy ecto
ie dad
ce d
Ġn eg
os o
Ġdo c
v a
Ġa gr
Ġo per
Â ¿
r ÃŃa
on ces
Ġfav or
Ġp unto
r Ã³
ĠT e
ĠÂ «
Ġqu er
Ġle g
Ġpr Ã³x
adr id
Ġf Ã¡
ten ciÃ³n
Ġant er
Ġs an
n g
O R
Ġc lar
Â Ń
Ġof ici
Ġnos otros
Ġbaj o
Ġconsid er
iz o
Ġcas i
un ci
Ġcon ocer
Ġs ac
Ġcon di
Ġ ...
Ġtr ad
Ġsal ud
z Ã³n
i re
Ġrec on
ar Ã¡n
Ġpre v
Ġs el
Ġno v
Ġsem ana
Ġed uc
Ġg est
Ġbue na
ĠJ u
ĠN acional
Ġh er
Ġh erm
Ġm uer
aje s
Ġex t
le g
ĠE x
Ġv uel
Ġap oy
Ġval or
S e
Ġn ombre
Ġespeci al
Ġgra cias
Ġmo del
Ġ 0
Ġmej ores
Ġac uerdo
el a
Ġni Ã±os
Ġg e
ĠM Ã©
ip os
Ġpal ab
Ġecon Ã³m
so ci
c as
Ġor d
an ci
ĠO r
im as
ra m
Ġorgan iz
C on
nd er
Ġab r
rÃ¡ f
e nz
uest ra
ver s
Ġempres as
Ġmo v
o p
Ġexper iencia
Ġex tra
Ġam pl
Ġin m
is is
Ġpermit e
ĠUn ivers
Ġne go
Ġl ado
ut os
Ġal l
Ġ |
ac ter
Ġresp ons
ar ÃŃa
Ġz ona
Ġp Ã¡g
Ġconte n
Ġcel eb
ad e
Ġh ombre
ien da
Ġcu m
ĠG u
d omin
Ġdist int
Ġord e
Ġseg uridad
ĠnÃºm ero
Ġt ecn
ĠS in
r Ã³n
Ġinst al
omb res
Ġa um
ot el
Ġb lo
A l
ot os
st itu
ier a
em b
Ġg ar
Ġf ut
Ġs imp
Ġme ses
or n
c os
Ġca us
Ġlib ro
Ġesp aÃ±
Ġcom b
Ġbue n
Ġrec om
l u
E s
Ġb ase
st a
Ã¡ p
ar lo
x ico
u ales
Ġdi rig
Ġorde n
Ġexp res
ĠU na
Ġv ÃŃ
Ġn unca
ific aciÃ³n
Ġ ded
ĠEst e
Ġfamil ia
Ġfu era
Ġv ent
Ġten emos
or al
Ġb r
Ã¡ b
er io
Ġc ir
ard e
Ġpuede s
Ġh emos
Ġrec ur
ch a
Ġincl uso
Ġesc rit
Ġa seg
P ara
Ġno che
c ar
ĠlÃŃ ne
ent aciÃ³n
Ġ1 1
re n
Ġj uego
Ġten go
A D
Ġre t
Ġal c
ĠF ran
al la
te g
Ġlo c
g ent
Ġno t
Ġmuj er
Ġc ambi
ĠD ios
Ġpr Ã¡ct
ĠD i
Ġpla nt
Ġ #
ĠM adrid
i les
Ġun as
Ġc entro
v il
Ġmerc ado
Ġal im
Ġemp le
Ġa Ãºn
c on
at ivas
Ġrealiz ar
Ġp ap
ir Ã¡
Ġ3 0
Ġbe n
Ġj ust
Ġdest ac
Ġrel aciÃ³n
I C
Ġcamb io
e ndi
re a
Ġh ora
Ġme s
Ġalgun a
Ġsab er
Ġprobl emas
i que
Ġdisp on
Ġcum pl
i ado
Ġpr iv
Ġcol or
Ġ [
Ġpres idente
Ġsig n
Ġt ermin
it ud
o j
ust ed
2 01
ĠM un
Ġan im
ĠEst ado
Ġ /
Ġam or
Ġj unto
r ic
Ġint eres
ol uciÃ³n
on io
Ġalgun as
Ġ usted
at ura
Ġofre ce
s erv
Ġet c
Ġcuer po
ĠInt ern
Ġ on
Ġt ema
Ġop ortun
Ġal g
Ġcom ent
Ġtra ta
ci miento
Ġcons um
ig o
ci na
am a
Ġprogra ma
Q u
Ġsitu aciÃ³n
Ġf oto
gra f
us iÃ³n
il las
ier ra
Ġdeb er
Ġreg ist
Ġpel ÃŃcul
Ġo l
er ic
aj a
Ġm ont
Ġfun d
om a
Ġ domin
b lo
Ġcu atro
Ġpart ir
Ġp uer
Ġcam p
Ġsab e
i ales
Ġpod emos
in aciÃ³n
Ġt ur
Ġf il
Ġex iste
ĠE uro
r ip
Ġ201 8
ust r
Ġpre cio
Ġn acional
Ġcont rol
Ġpon er
ĠM an
Ġprobl ema
ĠMÃ© xico
Ġdef in
or p
Ġoc as
Ġesc rib
ez a
o z
ĠpÃºbl ico
Ġc in
u se
Ġsol ici
Ġcom enz
Ġfre nte
iz ar
Ġv arios
Ġg obierno
Â ¡
Ġconse gu
ir t
Ġa sp
Ġin dic
est a
Ġel eg
no v
Ġpre par
ĠÃºlt imo
e te
b er
bl ig
Ġin s
al le
Ġs iendo
Ġpas o
Ġsegu ir
ĠQ u
Ã© is
Ġben ef
Ġdoc um
Ġre alidad
Ġlar go
Ġent onces
Ġencuent ra
Ġdisf rut
Ġsoci edad
Ġ1 4
1 9
Ġdi g
e a
u bre
am ento
Ġsig ue
Ġcar acter
Ġman o
g ue
Ġob ra
Ġv ide
ĠL u
Ġr Ã¡p
ist encia
. -
ib les
Ġb asta
Ġ1 6
i k
ĠA c
Ġest able
ul ta
ĠfÃ¡ cil
r Ã¡s
I N
ĠJ os
Â º
Ġa tra
D e
Ġdi s
ener g
di al
Ġsu r
Ġmin utos
ÃŃ ses
Ġactiv idades
ec u
as a
Ġobjet ivo
ĠA d
Ġad minist
ci d
Ġser ie
Ġcom erci
f r
i ano
Ġmun icip
Ġ1 3
Ġ '
Ġt erc
or ÃŃa
Ġlo g
al u
Ġo blig
Ġv an
ĠE sc
Ġpart ido
ir se
im e
Ġten ÃŃa
ĠA demÃ¡s
am ientos
Ġse ctor
Ġt or
Ġ energ
Ġid ent
iv amente
Ġa tenciÃ³n
ĠâĢ ĺ
ĠEst ados
Ġdin ero
el e
ĠA nd
Ġ2 5
Ġsoci ales
ĠG obierno
Ġs im
Ġpodr ÃŃa
Ġcorre sp
Ġesp acio
Ġemp ez
le n
Ġt arde
ĠpolÃŃt ica
os it
uest os
Ã ĥ
Ġpr ue
e sf
Ġp untos
Ġm Ãºs
om ÃŃa
ur al
aliz aciÃ³n
Ġpre cios
r era
Ġder echo
Ġtot al
n v
ĠEst a
le x
Ġre al
g ado
Ġrec or
om os
e sos
ic h
Ġh ub
Ã± as
ĠP ue
Ġpa ÃŃses
Ġh izo
Ġcor r
ue ncia
ruc ciÃ³n
Ġgar ant
ĠM in
g l
r Ã¡n
Ġsent ido
Ġoc ur
m ientos
ï ¿
Ġmedi ante
.. ..
ĠÃ ģ
Ġart ÃŃculo
Ġse ns
ï¿ ½
Ġme ns
Ġb lan
Ġfal ta
Ġclas e
Ġpro t
on di
Ġsit io
os p
ed er
z os
Ġ ub
Ġsigu iente
ion ales
Ġ du
Ġsegun do
Ġ1 7
Ġf or
U n
Ġmayor ÃŃa
Ġal ta
Ġdet ermin
Ġenf erm
Ġalg Ãºn
Ġt ar
Ġcomp art
ĠP ol
Ġay uda
e nse
Ġcap acidad
Ġre un
ul os
on as
ĠA nt
Ġnuev os
Ġa nd
Ġv i
Ġm ir
ĠseÃ± al
Ġpr om
ĠA p
Ġfin anci
Ġdise Ã±o
ĠUnivers idad
Ġm odo
Ġt ex
in al
Ġpre ci
Ġ ur
Ġinst itu
i ores
Ãº t
a f
Ġtran sp
ar te
ĠUn idos
acion ales
Ġm ol
duci r
Ġb ol
Ã ĵ
am e
r io
Ġac omp
Ġpro f
ul ares
Ġg as
Ġ il
Ġ ente
d ado
Ġnuev as
Ġal um
rend er
Ġt o
Est e
Ġqu ienes
r um
ge nes
ĠE nt
Ġcas os
Ġper io
ĠJu an
Ġa uto
Ġdi ver
Ġactiv idad
Ġcondi ciones
ici ones
Ã³ l
Ġide a
ĠG ener
Ġcre o
i an
Ġimp ort
Ġrepres ent
t aciÃ³n
Ġest amos
Ġpo bl
Ġ :
l ine
ici dad
aÃ± ana
an da
Ġcon j
Ġpas ar
Ã¡ r
Ġf aci
ĠA n
Ġ esos
ĠmÃ¡ x
Ġel em
ĠC ont
ier e
ĠM a
Ġcu anto
Ġaseg ur
ĠS oci
Ġdi ci
or ada
Ġvia je
ĠT ambiÃ©n
Ġresp ecto
Ġ201 7
Ġsegun da
Ġder echos
Ġresult ados
Ġproduc to
Ġneces ario
Ġ u
ut as
al o
Ġcer ca
Ġef ect
Ġdej ar
in gun
Ġpres ente
g on
Ġh ombres
Ġdec lar
d an
Ġpos t
Ġpro b
Ġac ab
Ġb as
ul io
iz a
ro p
Ġ1 00
il ar
y o
uest as
ĠM o
ĠJ e
Ġ2 4
Ġv iene
I I
Ġamig os
nt o
ĠlÃŃne a
e nv
Ġrel acion
is a
Ġbasta nte
m ar
ej a
Ġtiene s
Ġge n
gu ien
unt a
ig n
Ġprincip al
di f
ura ciÃ³n
Ġm ost
Ġhay a
Ġa del
Ġest u
Ġhace n
ab r
e uros
Ã¡t ica
U na
ÃŃ amos
at ivos
1 0
3 0
Ġdic ho
ec ut
Ã¡n do
Ġestudi o
ad ie
nci al
a ve
Ġr ad
Ġima gen
u ta
t ado
Ġnuest ras
Ġ euros
Ġest oy
Ġl uch
Ġp uesto
Ġ im
T A
Ġpue blo
ĠJos Ã©
Ġpre st
ĠY o
ÃŃst icas
Ġ env
Ġac ep
aliz ar
ÃŃt ulo
ĠS ant
Ġllev ar
Ġpro ces
ĠP er
Ġclar o
Ġap re
Ġr ies
Ġcl ientes
Ġc uest
I S
ÃŃcul os
Ġdi v
iv idad
Ġcomp rom
Ġa le
un a
u do
ing Ãºn
il idades
Ġimp res
r on
r ero
Ġmi emb
Ġac ceso
Ġcon vert
Ġesc uch
if ica
Ġ edad
Ġlib re
ĠpÃ¡g ina
ĠG ran
Ġm aÃ±ana
ent emente
Ġ ense
ĠespaÃ± ol
i ana
an ce
s iones
ad amente
Ġej erci
Ġ19 9
Ġmodel o
Ġv ac
Ġanter ior
on do
Ġpor t
Ġof rec
Ġprop io
Ġacomp aÃ±
ĠÃºn ico
Ġn ingun
que s
ĠC r
Ġf el
ec cion
Ġcier to
z ar
ĠR eg
Ã©r ica
om e
Ã¡ st
Ġp int
Ġvar ias
ar ias
Ġj o
Ġprim ero
Ġdebe n
Ġpre m
Ġa ses
Ġgust a
Ġa do
Ġcin co
Ġprofes ional
ac k
Ġfaci l
Ġincl u
ĠS ol
Ġf ÃŃs
ĠC an
Ġrecon oci
e sas
r or
Ġusu arios
Ġn ingÃºn
Ġcant idad
Ġhab lar
ĠC or
l emente
Ġs orp
h ora
ud e
c er
te ner
Ġg ol
Ġ x
ĠmÃºs ica
Ġcap ital
d ico
Ġcam ino
ĠCom o
Ġpo p
u per
Ġenc ar
ĠS eg
st e
ram ient
Ġcol abor
Ġpue da
Ġel las
Ġlu z
ce di
Ġproduc ciÃ³n
um e
ct ubre
Ġpalab ras
ĠV er
ĠLe y
re nt
Ġmedi os
nci l
i embre
Ġf ran
Ġp aci
Ġv ista
ĠÃºlt imos
Ġdesc ub
c u
vi embre
i Ã©n
Ġhaci endo
w w
Ġob serv
re to
Ġb eb
Ġgrat is
b e
Ġdem Ã¡s
mit e
l em
Ġmar ca
Ġbue no
it er
ns a
Ġ esf
on os
Ġcos a
Ġaf ect
di a
2 0
Ġcab o
ic aciones
Ġman if
Ġm ult
Ġcre ar
Ġhab l
ĠAs ÃŃ
Ġpart ic
Ġtom ar
Ġ5 0
Ġal guien
Ġagr ad
Ġm ag
form a
gres o
di r
Ġcom er
ĠR ep
Ġun ivers
Ġpe sar
ic Ã³
Ã© f
Ġpo te
Ġex ter
ap ar
ĠP res
Ãĵ N
Ġlo cal
Ġl imp
Ġrecom end
Ġpre se
Ġinvestig aciÃ³n
gent ina
is l
Ġprop ia
Ġp an
Ġblo g
Ġla nz
Ġl ect
Ġal to
ĠI s
ve nes
Ġprop or
Ġ201 6
ĠC at
T E
Ġh otel
Ġc la
Ġper man
âĢ Ķ
Ġcu ales
te nd
Ġse ncil
Ġab ier
Ġpap el
Ġl im
Ġf echa
Ġmante ner
Ġpr omo
ec ciones
ĠC l
e nci
d Ã³
Ġv el
Ġf e
Ġa g
Ġdif ÃŃ
ĠâĢ Ķ
Ġrecur sos
Ġoc up
Ġcon duc
Ġdeb ido
Ġresult ado
ur so
Ġm Ã³
Ġad ecu
is f
uer ra
Ġp iel
ĠGener al
et as
Ġrest o
Ġev itar
Ġm on
Ġdu da
ici on
Ã¡t ico
Ġdesc ar
ist erio
I D
Ġcon ci
Ġm ÃŃ
Ġher ramient
Ġcal le
Ġac ciones
Ã ¼
Ġser ÃŃa
ĠÃºlt ima
ific ar
Ġfut uro
Ġa z
ĠB e
qu il
Ġab s
ci do
Ġt it
iv al
Ġal ter
f t
Ġelect rÃ³n
j as
ici as
Est a
Ġf ra
Ġso y
re z
ĠQ ue
Ġest ilo
Ġvol ver
Ġn adie
oc up
Ġesp ect
Ġrest a
ĠÃ© x
ĠP e
ĠC uando
Ġent rada
ĠG ar
Ġsegu ro
Ġprofes ionales
ro nt
Ġaplic aciÃ³n
Ġp oc
Ġconsegu ir
d on
Ġ ib
ele s
ÃŃ m
ĠP re
Ġenferm edad
ac er
ec ta
ĠpelÃŃcul a
ĠS t
Ġv ig
Ġp ant
5 0
Ġa soci
Ġind ustr
ĠP a
Ġt Ã©r
Ġpre f
Ġf otos
or ios
Ġah ÃŃ
ific ado
ĠD ep
ib ilidad
Ġcomp rar
Ã³ venes
Ã© l
un io
r ad
v ar
Ġalc anz
Ġtu vo
Ġ dado
j ust
Ġmed ida
Ġtrat amiento
cel ona
od os
Ġ2 1
Ġque dar
ra mos
Ġcom ien
Ġa da
Ġproy ectos
ac ciÃ³n
Ġinter ior
qu is
Ġof er
Ġv isto
lar e
Ġest ruc
Ġintern acional
R A
ĠM art
Ġhi jos
ador as
Ã³ s
Ġb at
ic ult
Ġop in
Ġmuer te
Ġaquel los
e ncias
Ġform aciÃ³n
Ġv enta
Ġdisfrut ar
Ġer an
Ġmante n
Ġ esas
Ġ is
Ġcomun icaciÃ³n
Ġtrabaj ar
Ġincl uye
ĠprÃ³x imo
Ġve h
ĠT ra
Ġfund am
Ġdem as
i ro
ece n
ic al
Ġex cl
ct r
Ġapoy o
Ġh o
Ġoportun idad
Ġse an
Ġcomun idad
ap a
ĠN uev
Ġcu ar
t amente
n gu
Ġl ig
e e
Ġmad re
ĠM edi
Ġint el
Ġcomp ar
to do
Ġa ire
Ġman os
b as
an cias
Ã© m
rit o
Ã¡l isis
nci on
Ġp udi
Ġo ctubre
ec a
Ġac ciÃ³n
R O
Ġcomp et
d om
C omo
el la
ven ciÃ³n
Ġb al
Ġllev a
Ġprincip ales
Ġgest iÃ³n
Ġv io
Ġv amos
Ġant igu
ine s
Ġnatur al
ĠV e
Ġ201 5
Ġse pt
b al
ul aciÃ³n
Ġob ras
Ġrec uper
rib u
n ar
Ġcab eza
Ġn aci
Ġdirec ciÃ³n
n vi
Ġindi vid
L o
e nvi
un e
Ġno viembre
av ÃŃa
Ġle er
ale za
Ġpre ocup
lare s
f o
Ġm uestra
Ġinter Ã©s
Ġj Ã³venes
iv e
Ġs at
Ġpl ata
ÃŃst ica
Ġmejor ar
ed or
ĠJ o
Ġc ora
Ġex cel
Ãºbl ica
Ġve nd
ras e
ĠP r
Ġj ur
Ġdici embre
Ġall ÃŃ
Ġ2 2
Ġ envi
ĠCom p
Ġesp ec
ce der
ro duc
Ġcon cep
Ġtemp orada
ĠC al
ere ncias
ic ada
Ġre almente
Ġlab or
Ġus ar
Ã¡ genes
re ded
ic t
Ġten ido
Ġimporta ntes
Ġcam po
ĠD is
Ã¡nd ose
om as
Ġsig lo
Ġsept iembre
Ġs ir
Ġdesarrol l
ge ncia
Ġcat eg
M e
ĠcompaÃ± ÃŃa
or o
Ġn ar
ien d
Ġinter p
i anza
b les
ĠA y
Ġenerg ÃŃa
Ġjo ven
Ġred e
Ġm us
ns iÃ³n
ien cias
R E
oc ar
n al
k e
Ġdi o
Qu Ã©
Ġneces idad
di o
art amento
Ġc ara
Ġel im
Ġpue do
ĠEst o
Ġfuer za
Ġex ig
Ġprim eros
Ġense Ã±
id ores
s i
Ġpobl aciÃ³n
Ġmis mos
Ġm ant
Ġayud ar
ĠC entro
Ġcont acto
ĠC ast
Ã© nd
b an
ĠP al
ĠJe s
Ġest ra
Ġdise Ã±
Ġque da
Ġpod rÃ¡
im ientos
Ġutiliz ar
Ġinte gr
Ġmo dif
d ra
Ġv as
Ġequ ipos
Ġon line
Ġa udi
ĠÃ© p
Ġresp uesta
Ġedi f
Ġco che
ĠCom un
ual mente
Ġmuch a
Ġcu id
Ġsex o
Ġcar rera
Ġin dep
an e
Ġrede s
Ġc ul
re mos
Ġt emas
Ġest r
er ia
Ġg ob
Ġan unci
T e
Ġpeque Ã±o
P ero
l io
Ġp one
Ġcons ec
amp oco
Ġob tener
Ã©t ica
Ġr om
Ġprese ncia
Ġposib ilidad
Ġo jos
Ġt ierra
2 00
Ġaut om
Ġt em
p as
Ġac er
ĠB ue
Ġper d
Ġm er
Ġlog rar
et ros
Ġeduc aciÃ³n
ĠS erv
m b
Ġcu b
e uro
ĠdifÃŃ cil
ul as
i x
baj o
Ġconst rucciÃ³n
Ġapro v
T I
ĠCon se
Ġsu fici
les ia
ĠÃ©x ito
Ġsal ir
n ero
Ġest abl
Ġenf rent
Ġpro ta
j ar
Ġneces it
re tar
1 1
Ġs Ã©
Ġb Ã¡s
Ġ enci
orte s
ĠBar celona
Ġex ist
Ġj ulio
Ġal reded
Ġmedi a
Ġprincip io
rÃ¡f ico
Ġj unio
Ġsu st
Ġhi jo
je to
ra cias
Ġpad re
ĠS er
ĠMar ÃŃa
ĠR ec
Ġf is
t t
Ġpas a
e nas
ĠC am
Ġp ul
Ġcur so
Ġdirect or
Ġorgan izaciÃ³n
Ġgrup os
Ġim Ã¡genes
Ġespeci almente
Ġconj unto
Ġconten ido
Ġt am
Ġtel Ã©f
ĠP la
ay a
re g
Ġb a
Ġmay o
x im
Ġusu ario
Ġelem entos
Ġprop iedad
d emos
od a
on g
Ġint ere
Ġtecn ologÃŃa
Ġf ig
Ġa gre
Ġpar eja
r ido
an g
Ġencuent ro
Ġmater ial
Ġser Ã¡n
Ġtod avÃŃa
Ġries go
Ġ dÃ³
Ġcon form
Ġsu fr
ĠaÃ± ad
ant as
Ġle v
Ġprota gon
Ġar te
O M
ir ma
Ġbusc ar
ier nes
el o
ĠL A
am eric
Ġquier o
ĠÃ¡ rea
Ġra zÃ³n
Ġm ÃŃn
Ġres erv
ĠEuro pa
Ġp ed
Ġdep ort
Ġamb os
o ok
Ã© g
in cia
Ġ demos
Ġesf uer
A s
Ġ4 0
ac a
n Ã³
d ev
r ÃŃ
ens a
ĠAr gentina
iz ado
Ġneces idades
Ġfuer te
ien das
gos to
Ġningun a
Ġlib ros
in c
Ġsuper ior
Ġjue gos
ert ad
Ġ201 4
Ġop ciÃ³n
Ġedi ciÃ³n
u cion
Ġpad res
A M
abl emente
s on
Ġhacer lo
ver siÃ³n
Ġbusc a
Ġv est
CI ÃĵN
Ġvis it
Ġver siÃ³n
ĠC iudad
Ġf abr
Ġfun ciÃ³n
Ġcar go
ic ÃŃa
ĠS o
ĠCar los
Ġhist Ã³r
Ġconoci miento
. ,
iend e
Ġinf l
ice s
Ġle ngu
Ġl ista
Ġp ier
Ġparticip aciÃ³n
est e
Ġparte s
ÃŃ do
Ġ2 3
ĠIn stitu
ĠS anta
esp uÃ©s
uer to
Ġpued an
Ġpla zo
sc o
r up
Ġmar c
and id
ĠG o
u bl
Ġ $
1 2
ced e
in ado
Ġmed idas
er te
Ġju gar
Ġcamb ios
Ġestudi os
une s
Ġpartic ular
ĠE mp
Ġima g
Ġpropor cion
Ġh ici
Ġ q
id or
Ġin gres
ĠE duc
Ġf act
Ġviv ir
- -
quier e
Ġc ort
e nero
Ġmet ros
Ġofici al
ub e
Ġel abor
Ġinv it
ĠM i
ig a
ient ÃŃf
E L
Ġ dev
Ġef ecto
Ġco b
T O
re as
Ġb on
Ġal m
Ġ euro
o ce
Ġar m
end e
ĠÃºn ica
Ġp s
int a
k et
Ġm or
Ġamb iente
Ġcambi ar
re o
ist ro
ĠLu is
Ġcom Ãºn
Ġmiemb ros
Ġsigu ientes
h ib
Ġmar zo
ue s
or ias
or no
Ġ enero
ĠL ib
âĢ ĵ
Ġentre n
Ġn um
z c
Ġf l
ĠI g
Ġv eci
Ġaf irm
Ġmen or
eb rero
Ġpens ar
ĠR o
r ados
Ġcre cimiento
Ġgrat u
Ġf rec
_ _
ace s
gl Ã©s
Ã³ di
ĠA b
Ġestra teg
Ġinm edi
ĠF ac
ĠV al
ĠS on
at er
Ġcora zÃ³n
Ġv oy
Ġcult ura
Ġnego cio
Ġtend rÃ¡
Ġimport ancia
ĠH ay
Ġcr ist
E C
Ġas ist
Ġ â
Ġpla nte
ĠD el
c k
ie t
Ġc erc
Ġdeci d
Ġmanif est
Ġj orn
Ġcons ult
Ġh as
Ġlugar e
ie za
ĠO b
Ã© ctr
Ġver d
n so
ĠS ec
omb ia
ent ales
Ã¡m ara
ci al
uc e
Ā Ā
Ġespec ÃŃf
O L
Ġ dom
ĠN e
H ola
Ġprue ba
ĠCon s
ide ncia
Ġinc or
d esa
Ġform as
Ġter rit
ue lo
cul o
ĠB o
r ir
Ġcu ad
Ġabr il
Ġc iento
Ġofrec er
Ġdisp osit
Ġcl iente
Ġmay ores
Ġsolici t
Ġev ento
Ġmod er
Ġaprov ech
Ġco cina
ent ado
Ġa di
Ġs Ã¡b
Ġconst ru
Ġcons erv
Ĥ ¬
Ġpos ter
Ġk il
Ġse is
Ġh on
Ġc andid
Ġtel ev
Ġh ip
Ġinform e
ĠpÃºbl ica
I A
Ġlugare s
um b
ĠI N
iv il
v ieron
Ġar ch
Ġpe so
Ġten ga
Ġv iernes
Ġ ÃŃ
ĠVe n
C uando
at orio
Ġb o
Ġb el
Ġpa go
Ġmom entos
Ġcont ar
w are
Ġef ectos
Ġrecib ir
rip ciÃ³n
Ã³ p
Ġacer ca
Ġcomple to
ĠI nd
ĠT or
Ġp ien
Ġalreded or
Ġm it
Ġt are
Ġhab ÃŃan
Ġap ort
ĠF ern
Ġsu m
ud as
Ġcomp ra
r y
Ġtot almente
Ġtrabaj adores
E D
Ġestudi antes
f f
ed e
Ġre m
Ġdif erencia
ĠP l
d Ã©
ĠB ol
h er
Ġdo lor
Ġcaracter ÃŃsticas
ÃŃt ica
Ġcol ores
ol ver
u z
orm e
n l
er ior
le ncia
Ã© di
Ġsat isf
1 5
Ġan Ã¡lisis
Ġmov imiento
Ġdemas iado
Ġc rit
Ġsist emas
Ġrel aciones
ĠF eder
Ġm em
Ġpos it
or k
Ãº a
Ġ201 3
Ġide as
Ġin sp
ĠÃ©p oca
it ario
ĠD esde
Ġdesarrol lar
orm ente
v ia
ve nci
Ġapro b
Ġprot ecciÃ³n
Ġop ciones
Ġpres up
Ġlo gr
Ã į
Ġdeci siÃ³n
ĠC ap
Ġespeci e
Ġgu ar
Ġa ta
Ġ2 8
Ġcaus a
Ġesp aci
Ġall Ã¡
ĠP at
uy endo
Ġob st
Ġni Ã±o
Ġprof un
Ġav anz
on er
Ġpel ig
f ÃŃa
ĠIntern et
Ġenc ant
1 8
Ġcorre o
Ġneces ita
ĠT he
le o
Ġreg iÃ³n
qu it
iene n
Ġg uerra
Ġnatur aleza
graf ÃŃa
Ġa gosto
in d
Ġmater ia
Ġhum anos
Ġbaj a
i amente
ef e
Ġpeque Ã±a
Ġpa gar
Ġt ÃŃtulo
Ġcar Ã¡ct
v ent
al les
Ġencuent ran
et er
ĠvÃŃ d
Ġv in
ĠcarÃ¡ct er
Ġc ic
Ġvol unt
Ġviv e
Ġ dan
g er
olÃ³g ico
Ġs omos
Ġc ientÃŃf
Ġra z
Ġt ampoco
Ġtra tar
ios o
Ġreg res
Ġexcl us
di Ã³
v is
Ġn ave
ĠY a
u ciones
ĠC as
Ġn orte
ĠMin isterio
Ġ2 6
ĠSal ud
ÃŃ os
Ġ2 7
ej o
ume n
Ġem o
Ġf ondo
ĠdÃ³ lares
Ġf ac
ra ct
Ġp et
ĠE S
qu ir
Ġlib ertad
p ia
Ġper der
Ġcomp ete
Ġme ncion
Ġse par
Ġcont ro
aj o
Ġcom ida
Ġlle ga
Ġimp ul
Ġent rar
rend e
Ġay er
Ġorig inal
Ġref er
Ġesp era
Ã¡ nt
Ġp le
Ġso p
w s
ĠCh ile
Ġ201 2
Ġsup uesto
s apar
Ġtrans form
u a
oci dad
Ġmater iales
rim onio
Ġorig e
Ġa just
Ġentre ga
t al
Ġcas t
r ario
Ġcompart ir
i ados
ĠB an
Ġev alu
Ġs a
at al
Ġcr isis
og le
Ġorige n
Ġvide o
Ġproduc t
Ġrec uer
ĠprÃ¡ct ica
qu ina
ac o
ade s
Ġg o
Ġel ev
D esde
Ġdomin go
Ġ eta
Ġrel ig
Ġmun dial
Ġ iz
Ġexper im
ĠâĢ ¦
Ġpeque Ã±os
Ġente nder
A C
ĠtelÃ©f ono
ĠS a
Ġdistint os
Ġcre aciÃ³n
Ġcamp aÃ±a
il los
Ġtam aÃ±o
Ġ dÃ©
ĠP rim
Ġf ebrero
Ġdemos t
ĠmÃ¡x imo
Ġper ten
d orm
Ġem b
aliz ado
ord in
Ġor ient
Ġdec or
ar la
Ġpalab ra
ab lo
Ġm ec
end er
/ /
Ġcer t
Ġpos iciÃ³n
Ġconf irm
Ġ19 8
et ro
Ġver ano
ĠJes Ãºs
Ġcorresp ondi
Ġc ine
Ġquiere s
Ġprogra mas
ig ue
Ġpod ÃŃa
Ġllam ado
ĠTe n
Ġ dorm
Ġincor por
Ġ don
Ġcu mp
i ormente
Ġrep ar
ant os
ĠCol ombia
ed ores
e sapar
d esapar
Ġl iter
Ġpres enta
Ġalum nos
ĠF ue
an ia
Ġvis ita
Ġsal ida
Ġcon ect
Ġautor idades
Ġdej a
Ġest aban
Ãºs que
Ġtex to
Ġsem anas
eb ook
Ġv ie
Ġhum ano
Ġpro teg
Ġter re
Ġz onas
ĠAr t
Ġenci ma
Ġej ecut
ie do
Ġp is
Ġalter n
Ġsign ifica
p s
ĠN av
at oria
Ġinc rem
Ġtrabaj os
Ġcre e
ime n
Ġdirect amente
Ã¡ lo
Ġpro cedi
ĠH e
Ġejerci cio
Ġproces os
Ġib a
id amente
Ġin nov
Ġc ad
Ġin glÃ©s
Ġinte gra
Ġiz quier
Ġ desapar
le t
Ġconsum o
Ġpant alla
Ġho gar
ĠIntern acional
aÃ± os
Ġcont rario
Ġt re
Ġv oz
Ġcam pe
ĠC u
x ic
ĠSu per
ĠA ut
er to
Ġestable ci
Ġro d
Ġ6 0
u ci
ant il
n unci
uest ro
ĠP od
Ġgol pe
ĠD er
Ã³di go
Ġvel ocidad
Ġdi b
on ia
g Ã³
Ġs os
Ġsimp lemente
ĠsÃ¡b ado
Ġprov incia
ĠRe al
Ġblan co
t ur
Ġt Ãº
Ġlleg Ã³
Ġ Ã³
Ġel Ã©ctr
eci do
Ġcontinu aciÃ³n
is mos
Ġan un
ĠAd minist
r adas
ĠE j
Ġval ores
Ġqu iz
Ġf irm
Ġtras l
Ġtiemp os
Ã¡t icos
Ġre quiere
ie go
Ã© st
A demÃ¡s
Ġpop ular
ĠÃ¡ mb
Ġb ot
Ġt he
c ÃŃa
h t
unt amiento
qu Ã©
ĠÃ ī
Ġesc e
Ġgan ar
Ġma est
Ġlim it
Ġadel ante
Ġsol uciÃ³n
Ġcon ven
ran j
ol o
A r
ĠL at
ĠE N
em e
Ġg lo
l ica
cep ciÃ³n
Ġneg ro
Ã© nt
Ġab and
p ara
est o
Ġdistint as
Ġap render
Ġdifer ente
t an
Ġm ic
Ġcol ect
Ġplant a
Ġperson ajes
ord e
Ġ ens
Ġmar co
osp ital
Ġcont emp
ĠM ay
rit ur
ndi miento
Ġf amos
Ġmost rar
ĠP art
ĠMart ÃŃn
R e
Ġpoc os
Ġlib er
Ġest Ã©
Ġeuro pe
ĠConse jo
ĠpolÃŃt icas
Ġamig o
Ãºt bol
Ġpart idos
t ica
ar nos
Ġ ep
Ġ desa
I n
Ġinteres ante
ĠS p
ĠV ale
Ġnivel e
E nt
Ġb Ãºsque
Ġnivele s
Ġas i
Ġtemp er
r ando
im ismo
ĠP ed
Ġrespons abilidad
Ġac to
Ġide al
: //
ĠA t
aj as
rec ciÃ³n
Ġsue lo
Ã©t ico
!! !
rib un
Ġac e
am entos
ĠEduc aciÃ³n
Ġres ulta
Ġm ara
Ġluch a
ĠT el
ĠAm Ã©rica
d Ã³n
Ġcl Ã¡s
Ġme xic
e ng
Ġapre ndi
Ġjug adores
ĠO l
Ġref erencia
Ġentre v
Ġsel eccion
ĠvÃŃ ct
Ġmot ivo
ĠFran ci
ĠA hora
ÃŃ r
Ġintel ig
Ġt ipos
e nl
or ge
Ġf r
ĠPue d
il a
Ġapro xim
ĠPued e
Ġexiste n
Ġac erc
Ġbenef icios
Ġt ir
ĠSoci al
il it
Ġabs ol
olÃ³g ica
Ġpodr Ã¡n
Ġl unes
ĠA soci
Ġconoci do
Ġent orno
Ġproduc e
Ġpas e
la z
Ġvi ol
Ġfamil ias
Ġt all
Ġrealiz ado
Ġesce n
ĠU S
Ġdet alles
Ġvol v
iv er
Ġs ale
ĠR od
Ġdefin it
Ġmens aje
Ġv irt
Ġl in
1 6
Ġloc ales
st as
ac tos
Ġpresent aciÃ³n
Ġocas iÃ³n
ic k
Ġsuper fici
n ado
ĠeconÃ³m ica
Ġad quir
S eg
ĠRe s
R I
u vo
ĠInstitu to
ÃŃ p
s emp
ĠN os
Ġla t
c ur
Ġcar t
res a
ue ve
ĠpolÃŃt ico
r Ã©
S in
Ġocas iones
Y o
ĠA ct
ie te
Ġh echos
gen ier
u x
Ġpuer ta
Ġpregunt a
Ã³n ica
Ġf est
ici onal
or ÃŃas
d icos
is iones
ab e
Â» .
ÃŃst ico
o per
Ã©r d
Ġbue nas
cion ales
ru z
Ġrespons able
Ġdo ble
ĠC ult
Ġmar cha
Ġecon omÃŃa
s h
Ġvar i
ĠM ig
Ġ enl
Ġalim entos
ĠC ent
Ġin icio
Ġdesc on
w it
Ġperio di
rib a
est ar
ĠÃ© ste
Ġindep endi
iel o
r iz
i res
ĠI nc
Ġvio lencia
Ġsel ecciÃ³n
Ġintern et
Ġ201 1
Ġdisp osiciÃ³n
d ica
1 4
ĠE m
ci to
Ġvuel ta
ĠT odo
Ġin versiÃ³n
ĠMun dial
Ġpro nto
an s
i ares
Ġcateg orÃŃa
ĠM ont
ĠSe Ã±
Ġpodr Ã¡s
ad io
Ġob jeto
Ġcomerci al
ert ura
le ta
an ÃŃa
Ġtransp orte
Ġ2 9
Ġah or
Ġt ienda
ĠMun icip
i anos
Ġada pt
Ġopin iÃ³n
Ġban da
Ġplan e
ĠS h
Ġl et
Ġprop uesta
is e
el lo
âĢ¦ ]
ĠP lan
Ġdem oc
Ġ Ð
n omin
Ġconc ent
t on
y e
ĠP o
Ġverd e
quier a
E x
e semp
d esemp
Ġherramient as
Ġol vid
itar ia
Ġac ces
Ġsimp le
Ġsent ir
ĠeconÃ³m ico
Ã©n ero
me n
Ġcoment arios
ĠAnt onio
U N
ĠF in
ĠelectrÃ³n ico
? ?
Ġ desemp
Ġcomprom iso
t Ã³
Ġjorn ada
rib uciÃ³n
ec ÃŃa
Ġa un
Ġ +
ĠM as
ĠRep Ãºblica
ech as
Ġcon oce
Ġam ena
le sc
Ġconc l
Ġexcel ente
Ã¡t icas
u re
ar o
d Ã©c
Ġpre tend
Ġin sc
Ġest im
Ġc Ã³m
Ġsu erte
Ġrec og
ro b
Ġp unt
Ġext ranj
Ġcap az
Ġ eres
Ġindustr ia
le j
ĠE L
Ġ dÃ©c
Ġconst itu
Ġgob ern
t ico
ĠA unque
Ġse d
Ġart ÃŃculos
Ġnorm al
Ġcla ve
2 5
Ġeleg ir
ĠIn form
ol l
ĠNuev a
t uras
1 7
Ġpe n
ĠEnt re
ÃŃ rit
Ġint ent
ĠM or
one n
Ġdispon ible
Ġanim ales
ict oria
c ciÃ³n
Ġesc uela
Ġquer emos
Ġasp ectos
k a
1 3
Ġobjet ivos
Ġcon d
ĠC ub
or as
Ġpre nsa
ĠA gu
Ġmodel os
Ġleg isl
Ġpe na
ĠCom isiÃ³n
edi o
os as
anz as
e to
Ġ201 0
Ġme sa
Ġac us
Ġaum ento
ĠH um
Ġf ort
ĠC ON
ĠtÃ©cn ica
an c
Ġex te
ez uela
Ġp Ã©rd
Ġf rase
Ġdi ario
ĠrÃ¡p ido
at ion
Ġb aÃ±o
ĠDi rect
ĠbÃºsque da
ĠFranci sco
un ide
Ġcent ros
Ġdi vert
Ġv ÃŃa
Ġace ite
Ġ %
M A
Ġre duc
Ġsufici ente
Ġ &
ar emos
Ġescrib ir
it ales
Ġsign ific
ĠJ ust
s u
Ġcumpl ir
Ġdi ez
Ġinstal aciones
Ġfun ciones
Ġestruc tura
Ġparticip ar
ri que
ia go
Ġmit ad
co les
Ġcomple ta
Ġperson ales
Ġac cid
Ġam ar
ĠP as
Ġconv oc
on da
eci Ã³
Ġpor no
Ġqu iÃ©n
Ġhab la
Ġest Ã¡s
ĠH ab
Â °
ond er
Ġ Ã³r
Ġjue ves
Ġconf lic
ĠM Ã¡s
ĠM ad
Ġofer ta
Ġme zc
Ġb ra
ĠespaÃ± ola
di l
Ġl id
is p
Ġfamil iar
Q ue
Ġm iedo
ĠT ur
Ġ19 7
Ġlev ant
ĠtÃ©cn icas
ar le
ĠH a
Ġprue bas
Ġlab oral
ar m
Ġt a
Ġt ab
i j
Ġor g
Ġcent ral
Ġt erm
e nomin
Ġcomp lic
d enomin
om et
Ġvar iedad
ede s
Ġcuid ado
Ã¡nd ez
qu er
est as
ul l
n un
Ġconten idos
Ġot or
Ġseg ura
Ġpaci entes
Ġimp os
Ġrec ord
Ġsan gre
i nte
Ġdem anda
aÃ± as
Ġest arÃ¡
6 0
n orme
Seg Ãºn
e norme
ĠM at
Ġbue nos
Ġm ente
Ġ Ãºt
iz ada
Ġdisc o
L e
Ġbusc ando
Ġprincip ios
ĠD ec
Ġg al
Ġp ract
ĠpolÃŃt icos
Ġtr i
Ġestu vo
Ġconv ier
Ġb or
ĠGo ogle
min os
Ġcor rec
Ġal cal
ÃŃs imo
Ġh id
ar do
Ġ enorme
ĠEuro pe
Ġinst rum
Ġp il
Ġcu yo
Ã³s ito
qu i
Ġcol oc
on z
Ġdic ha
ĠD ÃŃa
ĠT o
aliz ada
o ta
Ġconcep to
Ã©r coles
Ġciudad e
Ġdiver sos
Ġciudade s
Ġexter ior
ier to
Ã©nd ose
ĠMig uel
ĠR ev
Ġespaci os
Ġos c
er g
Ġorig in
Ġconf ianza
Ġaplic aciones
Ġ8 0
d ando
t ro
Ġesfuer zo
c un
Ã¡lo go
p ro
ion ar
Ġdeb emos
Ġcuest iÃ³n
Ġciudad anos
Ġf ront
ĠT ran
e os
Ġj efe
p h
Ġdist ancia
aci a
Ġ denomin
ĠpÃ¡g inas
s mo
ur ales
ĠAy untamiento
n am
Ġllam a
ult os
Ġ[ âĢ¦]
Ġor o
le z
ĠE nc
Ġsex ual
Ġpa z
d or
Ġdeber Ã¡
Ġcr Ã©di
Ġpro ve
Ġv ale
Ġdest ino
U E
ĠC re
Ġb re
ĠU N
Ġinstitu ciones
ĠC ab
Ġquiere n
ĠPed ro
Ġef ici
ĠG e
ĠR ob
Ġdig ital
Ġob ten
olog ÃŃas
Ġr it
Ġbr in
od as
Ġcomp lem
Ġpubl icaciÃ³n
Ġmunicip io
Ġmad era
Ġmag n
Ġestado unide
I L
ĠMan uel
Ġat rÃ¡s
CI ON
ĠpelÃŃcul as
ot as
ĠGar cÃŃa
Ġsal v
Ġtom a
ĠG al
Ġempez ar
e ten
Ġfi esta
Ġb omb
end encia
end a
Ġkil Ã³m
ĠÃ¡ r
Ġsuperfici e
ra g
x to
Ġdef ensa
Ġac ad
ĠmÃ³ vil
4 0
un o
leg io
ios a
e Ã±o
Ġrealiz a
Ġinterp ret
ĠAsoci aciÃ³n
ĠG racias
u os
ĠlÃŃ der
ĠÂ ·
Ġref lex
Ġadminist raciÃ³n
ĠÃ¡ reas
ĠCon greso
T ambiÃ©n
ĠM ic
Ġinc re
Ġreun iÃ³n
ĠtÃ©cn ico
Ġc if
ol ucion
Ġgust o
Ġdeb erÃŃa
Ġclase s
Ġactual mente
Ġm uest
Ġar g
Ġman d
s m
Ġemple o
ue ncias
Ġsu sp
Ġmi les
Ġre nov
Ġal tura
Ġdif icult
lo g
Ġch icas
Ġco t
Ġprogra m
ft ware
Ã¡n ica
Ġperf ecto
Ġprov oc
Ġfue nte
Ġprop ios
ÃŃrit u
Ġac ceder
Ġpe sos
ci n
Ġequ ip
Â ³
Ġh tt
Ġ ech
Ġest re
ar me
Ġpro duci
Ġcl ub
Ġch ica
p ut
A T
Ġmem oria
Ġdis min
ĠseÃ± or
ad ura
s an
ret ario
ĠtÃ©r m
Ġmod a
ra ba
Ġca f
Ġ eng
Ġro pa
ĠM uj
gu ay
ĠVen ezuela
je s
Ġdiver sas
Ġeta pa
Ġf ase
Ġap enas
ĠmÃ© dico
Ġhub iera
Ġnatur ales
Ġescrit o
Ġcon ex
g ada
Ã ģ
on ÃŃa
ue las
Ġnum eros
Ġap art
i qu
Ġcontra to
Ġvis itar
Ġv ino
Ġintern acionales
ĠÃ¡mb ito
Ġcolabor aciÃ³n
ĠâĢ ¢
Ġdar le
ĠS E
er ÃŃas
Ġhab rÃ¡
Ġperio do
Ġtelev isiÃ³n
Ġvis iÃ³n
ul ado
Ġre nt
Ġllam ada
Ġampl ia
Ġz ap
S O
Ġt est
Ġtrad icional
Ġrec lam
Ġcir cun
ĠIg lesia
Ġesc ol
f re
r iÃ³
ct ores
ket ing
Ġar riba
Ġg Ã©nero
Ġha ga
ĠpÃºbl icos
Ġg anas
nci ales
d ue
ci ente
Ġnego cios
Ġfig ura
Ġgra b
U L
Ġent idad
n ciÃ³n
Ġperson aje
aliz a
Ġcomp ort
ĠD esc
Ġresp ect
Ġalm ace
ĠF und
ĠÂ »
ĠI I
ĠD esarrol
Ġt oc
Ġs iete
C Ã³mo
Ġpu do
Ġ dando
Ġcomenz Ã³
Ġasp ecto
ras il
Ġcomple tamente
2 4
la nt
ĠtÃ©r minos
Ġceleb rar
Ġar quit
Ġfuncion amiento
Ġa nc
Ġun idad
Ġcult ural
Ġ *
Ġ3 1
Ġten iendo
k i
ð Ł
Ġdice n
Ġvia j
Â» ,
it y
Ġfue go
Ġ ult
ĠlÃŃ mite
Ġmot or
Ġcu ya
ue gos
Ġcir cul
ĠX X
ĠC os
Ġconst it
Ġimp acto
ĠS us
el as
Ġmar tes
wit ter
M Ã¡s
Ġf Ãºtbol
Ġev entos
or ial
Ġlleg ado
Ġfundam ental
ĠC asa
use o
Ġconf ig
Ġimp lem
Ġrecib e
Ġc e
Ġado lesc
ĠR ed
ĠG onz
Ġanter iores
Ġcal les
Ġinte ns
Ġ due
Ġmi Ã©rcoles
Ġf res
Ġder echa
ĠG rup
Ġrecor dar
edi a
at as
Ġmara vil
Ġro b
ib lio
Ġpregunt as
Ġcualquier a
Ġactual idad
H ay
gue z
ĠSeg uridad
I T
nd a
As ÃŃ
i aciÃ³n
Ġcuar to
Ġcon ce
Ġesper ar
ig ra
v al
dÃ³n d
dÃ³nd e
Ġplata forma
ĠÃ© sta
ĠB a
Ġmis mas
eme n
Ġterrit orio
us a
Ġ9 0
Ġpe s
Ġapar ece
Ġpresent ar
ĠS ur
ica nte
ĠP ablo
Ġav ent
Ġcar ga
Ġsal a
Ġrad io
uch as
ic ados
og ra
Ġ Ã¡n
rum p
U R
Ġprim eras
Ġcor por
ribun al
ĠSant iago
2 2
Ġmar cas
Ġsitu aciones
Ġizquier da
Ġle jos
ĠT h
ĠCr ist
est ruc
ĠT odos
Ã³p ez
Ġnego ci
Ã ī
Ġorganiz aciones
Ġin vers
Ġrel ev
ĠIn v
ĠD an
Ġsed e
Ġarg um
Ġt ales
Ġinici ativa
Ġsit ios
Ġestrateg ia
se n
Ġconv irt
ig e
je ta
ĠD eb
Ġt amb
m ent
Ġgener aciÃ³n
I O
ech e
ier an
ĠR os
ros o
Ġal em
u f
lam ento
Ġtrabaj ando
Ġb ur
ĠE E
Ġdescar gar
Ġc m
Ġpr ost
ne o
id ez
Ì ģ
erm e
Ġjur ÃŃ
C u
Ġan al
Ġutiliz a
ur ar
Ġdib uj
Ġsos ten
ist ema
Ġpie zas
Ġpe or
Ġintere ses
Ġamb ient
A P
Ġte j
Ġpa g
Ġar ro
Ã¡ is
Ġn ut
ac ho
Ġrep et
Ġder ro
ĠBe n
Ġjust o
Ġqu erÃŃa
U S
ane s
Ġps ic
Ġel ecciones
Ġpreci s
Ġgr ado
Ġno ta
Ġjust icia
Ġper ÃŃ
ĠIn f
Ġplant as
Ġcos t
Ġhabit aciÃ³n
ra cia
Ġpla ya
Ġpres iÃ³n
Ġaband on
v iv
Y a
Ġedif icio
ar as
Ġfamil iares
Ġprofes or
ĠvÃŃd eo
ĠD espuÃ©s
Ġsab emos
Ġpresup uesto
ĠFran cia
z aje
uye n
Ġ200 9
ĠH oy
er al
Ġpe dir
est re
ic an
ĠE con
Ġn ie
Ġdocum ento
in s
Ġvin cul
Ġconoci mientos
c omo
ĠkilÃ³m etros
ĠB l
c ent
ĠmÃŃn imo
Ġrev el
ĠP ort
Ġdispon ibles
Ġsac ar
el las
Ġalgun o
ĠW eb
Ġsol uciones
oc h
Ġj ard
Ġpa is
Ġvent as
Ġ7 0
ci pl
Ġposib ilidades
Ġaquel la
Ġret ir
Ġcon m
Ġsol a
le za
Ġblo que
B ue
Ġsol amente
Ġterc era
Ã¡n ico
Ġhi ja
Ġten gan
â Ĥ¬
Ġfin ales
ĠP rem
Ġpie dra
ĠCh ina
t ores
ĠL Ã³pez
Ġv ir
Ð ¾
j u
Ġabr ir
Ġal oj
Ġre mo
Ġp id
ĠJ av
Ġhici eron
Ġ dÃ³nde
Ġpuer tas
d udas
Ġcompete ncia
Ã©g imen
ame n
ĠBue nos
t h
e nunci
ĠInt er
ĠA ires
Ġm ur
Ġ dudas
âĢ ĭ
ĠFac ebook
Ġv ot
Ġab og
at uras
Ġlar ga
Ġ3 5
vi les
Ġveci nos
Ġl lu
Ġdeci siones
E M
Ġespeci ales
Ġex istencia
Ġb oca
go t
Ġnov ela
Ġobst ante
Ġoc ho
Ġsue Ã±o
ect or
ier o
ĠÃºlt imas
Ġconsec uencia
Ġinf ra
Ġdej Ã³
Ġmanten imiento
E sp
U U
p os
Ġfuer zas
ĠlÃŃne as
Ġreg al
Ġlect ura
y as
Ġenc anta
Ġdeb ate
Ġnorm as
Ġre quis
Ġtri un
Ġcon vers
Ġter ror
Ġmej ora
on dos
Ġcas as
Ġcar ta
Ġt ritur
Ġalcanz ar
Ġp esc
ĠAm b
Ġk m
Ġre ducir
Ġm one
ĠEsp aÃ±
Ġhum an
ĠR am
s n
Ġob t
Ġveh ÃŃculos
Ġcr ÃŃt
Ġherramient a
p re
Ġpas os
Ġofre ci
Ġr u
Ġ ran
Ġnot icias
ĠDesarrol lo
Ġcorresp onde
ue bles
u ar
Ġdi go
ĠCub a
d ul
ra ciones
Ġla v
Ġhac ÃŃa
Ġinter c
Ġ >
Ġresp eto
Ġfin almente
ÃŃt ulos
Ġexp osiciÃ³n
Ġur b
ĠB lan
Ġjug ador
Ġdirec to
Ġtit ular
Ġterc er
Ġcon oc
ĠH ist
Ġc ita
Ġm am
Ġm ent
ĠcompaÃ± eros
C h
ĠE so
Ġa sc
rÃ¡f ica
ĠAl em
d ura
ir Ã¡n
2 3
Ġg ras
ĠE v
or ar
r is
Ġdi put
Ġser e
Ġac um
ĠVale ncia
Ġv ivo
ue nte
Ġas ign
Ġdesc an
Ġcuent as
r ue
bl os
ĠfÃŃs ica
as h
Ġposib les
ĠD av
Ġc it
Ãºlt ip
Ġ200 8
er ios
Ġcump le
Ġvac aciones
Ġescen ario
Ġint ro
Ġviv ienda
Ġresp et
Ġnave g
r eras
Ġhabit aciones
ĠUn iÃ³n
Ġp ec
ec uciÃ³n
Ġse siÃ³n
ĠF re
Ġpo bre
Ġsi ente
Ġinstal aciÃ³n
Ġma qu
ĠGrup o
Ġvide os
ĠB rasil
H oy
Ġesc al
c ol
Ġqued Ã³
z an
Ġpodr ÃŃan
ĠPro v
Ġas um
ĠEst udi
Ġpubl icado
ĠCon stitu
er an
z ado
Ġf irma
n em
il i
ĠC a
Ġexp lo
Ġveh ÃŃculo
Ġestabl ecer
o o
Ġaquel las
8 0
Ġres id
Ġf lu
Ġfue ntes
rit os
Ġve o
ĠPres idente
Ġc Ã¡mara
ĠR a
n ce
c an
Ġfin e
le nci
Ġres oluciÃ³n
Ġdi a
t s
ĠSeÃ± or
Ġgener ar
roduc ciÃ³n
Ġhab rÃŃa
ÃŃ ge
Ġmin istro
ĠmÃ¡x ima
Ġse ctores
gra ma
il ib
Ġpeque Ã±as
D urante
Ġfine s
Ġfel iz
Ġco inci
ĠC ruz
ĠO fici
ĠN ot
Ġdic h
Ġemb ara
Ġconsid era
Ġescuch ar
Ġsue le
ero p
Ġsencil lo
Ġacad Ã©m
ude s
Ġfis cal
Ġbenef ici
udi cial
olÃ³g icos
Ġh arÃ¡
Ġs t
ĠPer Ãº
Ġcomp on
Ġs ente
f er
ide s
y os
Ġs omb
Ġa bajo
ĠP ers
ific ados
Ġv os
d eten
Ġpod ido
Ġbar rio
Ġmal a
in do
Ġmen ores
Ġpos ee
ÃŃ da
Ġsup one
ĠI mp
Ġref iere
Ġar tes
Ġ ido
Ġesp ir
Ġlleg ada
Ġact itud
ĠF orm
ĠprÃ¡ct icas
Ġ deten
âĢ ¢
amb le
Ġtran qu
Ġdese o
ĠEst os
Ġatra ct
ch ez
Ġre quer
Ġincre ÃŃ
Ġaz ul
Ġre ndimiento
Ġprop ias
h ab
Ġpas Ã³
r ador
Ġhum ana
Ġregist ro
Ġin a
Ġres olver
Ġpretend e
Ġsim ilar
ĠPro duc
Ã¡st ico
Ġun idades
Ġdom ici
) :
Ġent idades
Ġcol ecciÃ³n
Ġesp ero
ven ida
Ġsec ciÃ³n
Ġso ftware
r ia
h u
cul os
Ġexpl ica
ĠY ork
Ġexper iencias
Ġint entar
. âĢĿ
Ġa te
Ġoper aciÃ³n
Ġcor te
ĠP an
Ġrealiz Ã³
Ġcons igu
Ġprincip almente
Ġocur re
Ġid i
Ġpr on
Ġpla za
Ġamb as
ĠÃģ ng
v as
ĠM al
Ġenfermedad e
Ġenfermedade s
Ġdocum entos
ĠpÃ©rd ida
ira ciÃ³n
Ġc iencia
Ġar gent
ĠC ada
Ġder iv
Ġer ror
Ġtemper atura
Ġin vert
Ġop t
ĠCl ub
ar ca
Te n
ĠJ a
9 9
us ia
Ġimpos ible
Ġar re
Ġmaravil los
Ġadminist rat
uy Ã³
Ġcircun st
ome n
Ġprem io
Ġabier to
Ġdesc uent
P ro
ĠDi recciÃ³n
me nes
Ġcan ciones
Ġbel leza
Ġoper aciones
ĠM on
Ġdebe s
k y
Ġdi ag
ĠseÃ±al Ã³
Ġpro te
Ġdep orte
Ġsigue n
Ġperf ect
ĠD omin
Ġ dura
) ;
p tar
S u
Ġm Ãºltip
Ġcer eb
Ġam ist
Ġtu v
Ġcal or
ec as
Ġg l
Ġg ast
Ġfact ores
ar los
Ġrepres enta
Ġingres os
Ġpermite n
Ġcam a
ono ce
vi amente
Ġsi lenci
Ġpol icÃŃa
Ġhub o
Ġmec an
ĠPol icÃŃa
Ġleg al
Ġraz ones
Ġaprendi zaje
Ġcons ulta
ĠE di
sp ect
ĠN orte
ual idad
Ġped ido
Ġcons ol
ĠF is
k er
Ġv ictoria
Ġvuel ve
ar an
Ġsi quiera
Ġten ÃŃan
Ġloc alidad
Ġn av
Ġpro bar
Ġaum entar
Ġcomerci ales
em ia
Ð °
Ġfuncion a
Ġequ ilib
os os
re mo
Ġr ue
g ados
Ġn omb
Ġparticip antes
Ġtrasl ad
Ġdet rÃ¡s
Ġcomun idades
un g
ĠFund aciÃ³n
Ġel ecciÃ³n
ĠCon f
C O
IC A
Ġgas tos
Ġn acionales
edad e
Ġcoment ario
rÃŃ guez
id ar
Ġis la
Ġllev Ã³
Ġr uta
Ġ dul
edade s
Ġdesa f
Ġrecor rido
c Ã©s
Ġj am
ĠN O
V A
L A
Ġmil it
e nso
p le
Ġcomer cio
Ġsens aciÃ³n
Ġ ital
Ġpos e
ĠAdminist raciÃ³n
ĠR om
ĠOr gan
Ġt iendas
Ġinform Ã³
e nem
Ġcomien za
f a
Ġre ce
Ġap unt
Ġson ido
ru ta
ort s
ĠperÃŃ odo
Ġpar ecer
i ada
ĠM ag
ĠSeg Ãºn
int o
ĠM ac
Ġcorrespondi ente
i Ã±o
ev illa
Ġco p
Â ª
ĠSec retar
Ġincl uyendo
Ġp ot
Ġh ar
it Ã©
Ġac og
Ġprop uestas
Ġcondi ciÃ³n
Ġofer tas
Ġf ir
b it
Ġata que
Ġnot icia
Ġofrece n
Ð µ
aÃ±o les
Ġexper tos
iblio t
Ġhay an
ĠpÃºbl icas
Ġart istas
st ico
os iciones
ĠD ef
re ta
Ġv oc
E T
ch as
Ġf ol
gu a
ra el
ac as
Ġcor to
T ras
Ġest Ã©n
ĠT er
k o
eg a
ĠP P
Ġr ÃŃo
Ġdisposit ivos
Ġencont ramos
d ro
Ġpue blos
Ġmunicip al
Ġest ad
Ġexpres iÃ³n
Ġent ra
Ġrev ista
Ġh Ã¡b
ĠJust icia
Ġherm ano
Ġs int
d enunci
ar ial
Ġp ide
ĠU r
it arios
Ġc Ã³digo
Ġj untos
C A
Ġpres id
A hora
Ġ enem
Ġconstru ir
Ġmant iene
ier ta
ĠT ras
Ġcat al
Ġr Ã©gimen
Ġol v
Ġreconoci miento
Ġform ato
um bre
Ġex cep
Ġtare a
Ġdesc rib
Ġaproxim adamente
Ġh ue
v an
Ġb and
Ġ denunci
4 5
ven ir
Ġcumpl imiento
Ġem it
Ġdist ribuciÃ³n
t i
ic ales
Ġdel ante
est iÃ³n
Ġcar ne
Ġl it
ĠRod rÃŃguez
Ġident idad
Ġpres entes
Ġcan ciÃ³n
ĀĀ ĀĀ
Ġconst ante
Ã¡n chez
Ġrit mo
Ġv ic
in ados
ĠF el
ĠC amp
Ġentrev ista
ĠJ orge
ect ura
Ã¡ lez
s al
ill er
Ġac o
Ġtermin ar
Ġmil itar
ĠCr isto
Ġcr uz
Ġt ro
form as
Ġa st
Ġsu sc
Ġal ma
Ġprov inci
l er
uch a
Ġtran sf
Ġp iso
d uro
ĠtÃ©rm ino
Ġalcal d
s ay
Ġplane s
Ġad ultos
ĠServ icio
Ġf eder
ĠmÃ© todo
Ġpr ior
Ġfoto graf
Ġc ielo
ĠM erc
Ġfal le
Ġdet ect
Ġp ies
ĠPor que
iz ados
Ġgust arÃŃa
C om
uc ÃŃa
Ġb ienes
gu st
Ġusted e
Ġme dic
Ġexpl icÃ³
Ġmot iv
Ġustede s
c ho
I M
ĠP Ãºbl
Ġdej ado
ej as
Ġf emen
iliz aciÃ³n
ĠD r
ic ciÃ³n
Ġrec uerdo
Ġalcald e
ĠPro fes
Ġcos to
Ġhabit antes
d ur
Ġinte nciÃ³n
Ġ duro
i anas
Ġrelacion ados
ĠR el
ne a
Ġhist orias
Ġest at
Ġoportun idades
Ġdic t
Ġsolici tar
Ġconvert ido
Ġact os
Ġimp lic
Ġpro hib
Ġv it
Ġpar que
e nun
ici al
Ġconte xto
A unque
Ġemple ados
Ġina ug
Ġf ondos
Ġpe se
g el
it utas
ĠvÃŃct imas
Ġab or
Ġmir ada
ĠP uerto
ez ol
Ġin cid
ĠrÃ¡p ida
Ġart ista
v el
Ġpriv ado
Ġcorr up
ĠH o
ol uc
Ġtra y
to dos
Ġmiemb ro
Ġco oper
h n
amb io
Ġpas ando
Ġart ic
oj as
Ġc aja
Ġgarant izar
Ġf rut
Ġcol omb
Ġrecib ido
Ġcomp ut
Ġil um
Ġenl ace
Ġso b
Ġdep ende
Ġsir ve
N os
Ġad m
Ġglo bal
ĠprÃ³x ima
il le
Ġrev is
Ġobjet os
Ã¡n cer
Ġesp aÃ±oles
Ġsere s
Ġpel o
ĠC ivil
ĠAl gun
Ġperf il
Ġ5 00
ĠLe Ã³n
s is
Ġac re
s in
Ġper iÃ³
am o
ĠD oc
Ġc ivil
ĠFern ando
Ġdi me
Ġpubl icidad
Ġju icio
Ġsur g
Ġm os
P A
k ing
Ġtamb ien
on ato
ĠF er
Ġpaci ente
Ġdisposit ivo
Ġper spect
* *
Ġcons iste
Ġconex iÃ³n
d enun
Ġar mas
Ġcre ado
Ġab ra
Ġv eg
Ġdet alle
Ġesc ena
ie se
Ġterre no
ĠEsc uela
Ġdeb ajo
a a
Ġl eche
Ġr um
us iones
Ġinstitu ciÃ³n
i i
h at
Ġofici na
Ġprof und
Ġ200 7
Ġaum ent
Ġcont rib
Ġa bre
ĠV ic
ÃŃ z
Ġ rol
Ġconci encia
2 1
ĠS Ã¡nchez
Ġreg ular
Ġt rÃ¡
ĠGonz Ã¡lez
Ġb io
k s
oc he
Ġman ej
Ġtel ef
Ġinter venciÃ³n
Ã¡m ica
Ġ denun
or g
Ġestadounide nse
Ġform ul
Ġsu g
ĠAlem ania
ĠDav id
Ġtend encia
Ġ4 5
ĠDE L
ĠS up
ate s
Ġda Ã±o
ur sos
era pia
Ġmic ro
Ġsin dic
V I
Ġp uso
ĠS evilla
Ġt ÃŃp
Ġtar jeta
ww w
Ġ =
ge ncias
Ġpas ada
ar ra
u o
Ġvolunt ad
Ġcur sos
ĠT V
Ġdirec ta
ĠZ ap
Â «
i jo
ue d
Ġre duci
Ġaseg ura
e sm
r ores
Ent re
ĠM il
ĠL eg
Ġin g
Ġmezc la
aliz ados
Ġh om
Ġal quil
ĠcrÃ©di to
Ġcont iene
Ġdist ribu
Ġdescub rir
Ġind ica
ol v
Ġalim ent
. )
ĠO t
Ġcad ena
ĠA z
Ġres istencia
co nt
Ġmus ical
Ġ19 6
Ã¡ culo
Ġley e
Ġprop Ã³sito
Ġg ama
Ġleye s
B A
Ġneces aria
um a
ĠI tal
u Ã±
ĠN ic
Ġa se
ber to
an der
Ġproteg er
ĠL uego
Ġ @
Ġquiz Ã¡s
in ce
Ġherm anos
Ġve nder
Ġdep artamento
Ġpe ndi
2 7
ue los
Ġcl ÃŃn
ran o
w n
Ġcomp re
ĠA quÃŃ
3 3
Ġsabe n
ay o
Ġro jo
Ġcier re
t icos
ĠEl ect
ĠJ unta
Ġ dur
Ġcap aci
Ġvol umen
L E
Ġelim inar
ĠI ndi
Ġllev an
ret era
Ġs iento
Ġedi tor
ued e
Ġprecis amente
Ġexpl icar
Ġmens ajes
Ġpoc as
Ġl Ã³g
2 6
ĠF l
ĠComun idad
Ġtare as
Ġcic lo
Ġv emos
s s
Ġqued an
Ġb ici
Ġfor o
e sn
il os
gr ÃŃa
Ġprocedi miento
Ġlimp ieza
Ġfi j
Ġampl io
Ġc Ã¡l
ĠhistÃ³r ico
Ġtor no
Ġasegur Ã³
Ġr ost
p ol
Ġdel eg
Ġhabit ual
ĠPart ido
Ġt ub
Ġbenef icio
Ġac cion
M i
Ġcon venci
as o
ĠH er
Ġrecon ocer
Ã© rez
EN T
ĠServ icios
Ġespect ac
e nam
Ġl ine
Ġh u
Ġsue len
al las
g amos
ĠfÃŃs ico
ns iones
d uraciÃ³n
ĠmÃºltip les
Ġsorp rend
Ġlengu aje
Ġev oluciÃ³n
Ġre forma
Ġorgan ismo
Ã©r cito
Ġcomenz ar
Ġig lesia
ĠB r
D espuÃ©s
er aciÃ³n
Ġp uestos
Ġpermit ir
Ġsim il
lan d
Ġv ul
ik e
Ġc ale
Ġcu br
Ġh ier
ĠS am
e as
ĠB al
Ġley endo
ĠBan co
Ġperd ido
indo ws
Ġperman ente
Ġhac emos
Ġcan al
% .
m m
s ign
Ġpote ncia
Ġviaje s
Ġmov imientos
in i
ĠD urante
Ġinf erior
Ġcier ta
ĠV illa
in aria
Ġalc ance
Ġsu ma
ĠÃºt il
res iÃ³n
ĠP ad
Ġ duraciÃ³n
ult ad
Ġ dro
Ġhon or
Ġreci ente
Ġ enam
r er
Ġfrec uencia
Ġar ran
Ġapre ci
Ġresta urante
Ġh ospital
di endo
ĠS em
Ġw ww
Ġtend rÃ¡n
ĠEsp eci
Ġs ost
Ġrequis itos
Ġneces arios
tor io
er ado
nÃ³ me
Ġcontro lar
ej or
âĢĻ ,
Ġprom edio
ye s
ĠrÃ¡p idamente
Ġpromo ciÃ³n
Ġencont rado
d esn
Ġch icos
ĠM er
Ġagu as
Ġsegun dos
Ġref le
ig os
Ġpref er
ĠT a
Ġpresent ado
Ġn ombres
Ġa gres
I F
amble a
g io
Ġdep endi
Ġesp ÃŃritu
uest ros
ap acidad
ĠCult ura
Ġhtt p
Ġplan eta
ig ht
Ġdej e
Ġrecuer da
erop uerto
ĠM Ã¡
Ġperf ecta
Ġb os
Ġconoci da
uch os
Ġentre gar
C E
Ġat ac
Ġrod e
Ã³l ica
Ġrealiz aciÃ³n
Ġcu Ã¡
2 8
rat Ã©g
Ġaplic ar
Ġtecn ologÃŃas
ĠH otel
ĠT ierra
Ġcu idad
Ġform ar
Ġ desn
Ġac aba
uent a
Ġdej o
Ġin gre
s or
3 5
Ġpens amiento
co h
ĠT ecn
Ġequ iv
Ġest an
Ġinf antil
D O
ĠV ir
r ales
Ġtrans mit
iste n
er amente
ĠC er
? ,
ĠInv estig
A p
Ġactu aciÃ³n
Ġalim entaciÃ³n
Ġrecib iÃ³
ĠInc l
Ġcuent an
Ġgu ÃŃa
ĠS il
Ġt antos
ĠR usia
P S
Ġsu minist
ĠD ip
Ġimpres ion
Ġper m
Ġesp al
201 8
Ġqued e
Ġv aya
Ġsub ir
Ġp utas
Ġas istencia
Ġpro ducir
ĠÃī l
l ado
rar se
Ġconc urso
ĠMunicip al
ĠS ub
Ġpresent Ã³
__ __
Ġ Ġ
Ġmis iÃ³n
Ġconc reto
Ġhabl ando
p ero
ĠB el
is os
ĠM ed
ĠS istema
Ġsolicit ud
Ð ¸
uce s
ĠB er
Ġlengu a
ĠN eg
Ġelem ento
Ġcomport amiento
Ġsabe s
ra y
Ġsab or
ĠM ur
gra m
ĠT om
ol ina
Ġas unto
Ġnecesit an
olÃ³g icas
Ġlle no
Ġfe nÃ³me
Ġch ico
ĠS ex
Ġdi eron
Ġcl ara
g adas
Ġpor cent
Ġ3 00
z ca
Ġadecu ado
Ġevalu aciÃ³n
Ġs uel
Ġfran cÃ©s
ue ntes
Ġre b
on el
Ġconsec uencias
Ġs p
Ġer rores
Ġag entes
Ġcontinu ar
ĠV I
Ġexp ort
Ġesp osa
il d
ĠT ribunal
ip e
' ,
Ġcaf Ã©
Ġreserv a
Ġcont actos
ĠprÃ³x imos
ĠEst as
P re
Ġmerc ados
Ġarch ivos
2 9
Ġbeb Ã©
Ġrepresent antes
Ġf lo
Ġsu ces
ro id
Ġ ..
Ġutiliz ando
ÃŃs ima
Ġdomici lio
w e
d ece
] âĢĭ
Ġtrabaj a
Ġtrad uc
Ġprop iet
Ã ĳ
ĠP Ã©rez
Ġver t
iver so
Ġcar b
Ġf om
Ġt ap
Ġverdad ero
estruc tura
on so
Ġpod eros
Ġven ezol
Ġindustr ial
Ġdi j
Ġi P
Ġgratu ita
ĠT witter
Ġries gos
ic s
Ġrel aj
Ġcond e
Ġinv oluc
Ġresp onder
me s
i Ã¡n
ÃŃst icos
Ġac udi
ĠA L
is as
Ġmen udo
ut aciÃ³n
Ġto que
Ġsu stitu
Ġrec h
z ada
n ses
Ġaudi o
Ġt rib
ĠA st
Ġcal iente
ĠH u
ĠEurope a
% ,
ĠPla za
Ġconse jos
al lo
n or
Ġam eric
Ġpa que
ac tar
Ġpro gres
Ġperfect amente
s l
at ar
Ġ3 6
er ar
ĠS te
ĠP RO
ĠT r
Ġabier ta
do ba
Ġaut ores
R ec
Ġcor rect
Ġaccid ente
Ġre y
Ġrespons ables
Ġmot ivos
Ġc Ã¡ncer
Ġdescon oci
Ġtran sc
Ġcar retera
Ġconvier te
Ġca er
ĠCo pa
Ġalmace n
ient a
Ġp uesta
Ġutiliz ado
Ġni Ã±a
Ġcomun e
e Ã±
ruc ciones
Ġsencil la
Ġdeber Ã¡n
l ÃŃ
Ġcomune s
ĠM ore
Ġt ier
Ġfoto grafÃŃa
G racias
ĠF est
or aciÃ³n
ci les
Ġqu ÃŃm
ĠSal v
Ġub icado
Ġra t
R ES
Ġp in
Ġantigu o
ĠS el
ĠDer echo
Ġ dece
iv ar
Ġfuer tes
ĠA D
Ġpelig ro
cion ado
Ġconflic to
Ġdis cipl
ad al
Ġpro ced
Ġac lar
Ã³lo go
Ġres ist
Ġ )
Ġincluye n
Ġej ecuciÃ³n
ĠA na
Ġente nd
Ġet ique
Ġdec ÃŃa
af a
ic adas
t ada
ĠDep artamento
ĠD ist
h am
ÃŃ e
Ġop osiciÃ³n
Ġprotagon ista
Ġautor idad
Ġceleb raciÃ³n
ĠJav ier
ĠRe y
Ġmas a
Ġcre ci
Ġh uel
Ġl ist
9 0
Ġqued ado
n za
ĠmÃ© dicos
Ġaut Ã©nt
Ġveg et
am Ã©rica
Ġanim al
ĠCent ral
Ġsop orte
ĠO N
Ġhacer se
Ġf lex
ĠP op
Ã¡b amos
Ġj ap
Ġb u
Ġdet all
i Ã±
Ġap ertura
uev a
ĠT Ã©cn
ĠPro t
Ġintel ect
n et
un da
ĠsÃŃ nt
ĠS ab
ecut ivo
Ġpote ncial
Ġre ac
ĠT al
H ace
Ġmar keting
ĠC orte
gu ir
i Ã©ndose
j ud
ĠestÃ¡ nd
ĠmÃ¡ quina
Ġacep tar
Ġre sc
ĠnÃºm eros
Ġactu ales
Ġpens ando
Ġn erv
ĠSecretar ÃŃa
Ġv iendo
ĠEx p
Ã³n ico
Ã³r m
Ġpl acer
ĠM ientras
Ġreg ul
Ġestabl ece
r Ã©s
Ġagrad able
st ru
Ġhab ilidades
gu ar
ĠtÃ©cn icos
Ġdecid e
Ġson r
que z
Ġdef ens
Ġviene n
Ġgen ial
Ġest aciÃ³n
Ġb rit
Ġcer rar
ĠL iga
Ġfuncion arios
ura ntes
Ġa ns
Ġaut on
ad ero
Ġestr ellas
Ġenv ÃŃo
genier ÃŃa
in ada
AR A
Ġcab ello
ĠR E
7 0
icion ales
di entes
Ġha go
ci ndi
o x
Ġf ich
ĠG re
Ġdesp laz
ĠCos ta
Ġexp ect
Ġap rend
Ġllev ado
Ġindependi ente
Ġte atro
m art
ĠA udi
Ġbusc an
ĠTra bajo
ĠdÃ©c ada
Ġpint ura
Ġda Ã±os
ĠT ar
ĠPue s
Ġbase s
Ġf er
ĠFern Ã¡ndez
Ġlleg ue
Ġreci Ã©n
Ġfut bol
ĠMartÃŃn ez
j al
ĠO c
Ġdese a
Ġarch ivo
Ġcomun icado
Ġsec retario
Ġsu f
Ġsab ÃŃa
e uda
Ġposter ior
Ġper ro
ic ana
ĠR ef
ĠV alle
Ġv istas
Ġc ay
oci onal
ĠF uer
Ġestu v
ĠprÃ¡ct icamente
h an
Ġdefinit iva
Ġcont am
Ġub icaciÃ³n
Ġch ile
Ġtall er
ĠÃºn icamente
. "
Ġcompet it
Ġter ra
ĠD o
qu inas
3 6
ĠItal ia
gr ado
Ġaquel lo
Ġemp ieza
ĠJ ap
icult ura
Ġmanif i
and ro
Ġ200 6
Ġespeci f
- ,
ĠC la
Ġv idas
ĠL in
ĠG uerra
Ġco ci
e say
Ġt ut
Ġimp lica
ĠFeder al
d esay
Ġlu jo
ite s
Ãº sc
Ġprem ios
Ġac uer
r il
Ġem er
Ġcl ic
Ġanunci Ã³
Ġlle na
is h
ĠP D
Ġcos tos
Ġdej ando
Ñ Ĥ
ere nci
od er
Ġc Ã©l
Ġal coh
Ġex act
Ġbr illa
ar iamente
d euda
Ġindic Ã³
Ġcomp render
ĠmÃ³ viles
ro e
y s
ĠF il
A B
Ġc iv
Ġtur ismo
ĠÃ³ pt
ĠConstitu ciÃ³n
Ġdeci diÃ³
Ġgra ve
ã ģ
ep t
Ġafirm Ã³
Ġco g
ios os
5 00
Ġca ÃŃda
ĠC Ã¡mara
Ġpriv ada
Ġil ust
ĠA ng
Ġcandid ato
C ont
ĠH ar
t el
ĠC iencias
Ġrecuper aciÃ³n
Ġmat rimonio
ĠA v
D esc
Ġinici al
ĠJ ulio
ĠN i
ib e
Ġcomp ro
Ġ deuda
Ġinsp ir
le tas
ĠCom er
ĠD on
Ġvis itas
Ġt rÃ¡fico
Ġadecu ada
Ġ ðŁ
Ar t
ĠS anto
Ġb i
ĠeconÃ³m icos
Ġ desay
D E
Ġconvert ir
Ġh uev
Ġestrateg ias
Ġinc on
Ġcons igue
Ġjue z
Ġac ost
ĠA gr
Ġesper anza
Ġsu cede
Ġorg ul
Ãº car
Ġases or
Ġgob ier
Ġrece ta
I B
Â ´
ĠS ÃŃ
Ġf ab
Ġenvi ar
Ġtrans m
le y
Ġcomprom et
ĠL ond
Ġrost ro
Ġsimil ares
ĠH ern
Ġsub s
Ġllam ar
af as
Ġcap aces
Ġfr ÃŃo
Ġdisp ut
Ġofici ales
o od
Ġcre er
Ġprofes ores
Ġc uel
americ ana
Ġme ta
Ġexp edi
at ividad
Ġdi eta
Ġper ci
Ġrepres entaciÃ³n
ĠM useo
Ġintegr al
Ġi leg
Ġâ Ĥ¬
Ġvent aja
Ġt ono
Ġcos ta
Ġm el
v io
Ġapart ado
Ġfi estas
Ġrecuper ar
Ġsol ucion
ĠfÃ¡cil mente
Ġfl ores
oso fÃŃa
Ġestable cido
Ġinnov aciÃ³n
Ġfacil itar
5 5
Ġcircunst ancias
ĠGu ar
ice n
Ġdestac ar
r ist
M ar
Ġpued as
s ÃŃa
res as
ĠMun do
ĠO s
Ġch oc
ĠI b
Ġespecie s
Ġlogr Ã³
Ġcon oz
Ġgener ales
Ġcomien zo
ion ado
Ġl ic
Ġesc og
Ġban co
l b
Ġcaus as
t ados
Ġre ales
Ġprob ablemente
Ġman ejo
Ġr as
Ġvia jar
Ġpar ecÃŃa
Ġllu via
ĠA g
Ġr ub
Ġpis cina
Ġh el
Ġindivid ual
Ġco ord
Ġtrad iciÃ³n
ĠPro grama
z go
Ġreg alo
!! !!
Ġal tos
ĠInd ustr
Ġempez Ã³
Ġdo ce
Ġneces arias
ĠC Ã³r
Ġsal iÃ³
ĠW indows
ĠaÃ±ad ir
Ġserv ir
II I
Ġl Ã¡
Ġt asa
ĠSol o
Ġqu is
Ġpro l
at ivamente
Ġcom od
Ġtr ip
o que
Ġdist in
Ġtu vieron
if e
Ġestudi ar
vers idad
Ġdif erencias
Ã¼ e
Ã©t icos
ĠcompaÃ± ÃŃas
Ġpropiedad e
ĠT iene
ĠB ur
Ġpropiedade s
Ġdisp ar
ĠA N
Ġte orÃŃa
Ġple no
Ġrech az
ĠRe ino
Ġv iento
Ġelect oral
ac ta
ĠT rump
ol d
Ġquer ido
ĠO p
l y
Ġus a
an ces
Ġdo ctor
at or
Ġescrib iÃ³
ĠG ab
Ġprost itutas
9 5
Ġcont ribu
em ent
ruc t
Ġnuev amente
Ġdisp one
ĠV ol
Ġpie za
Ġentren amiento
Ġju z
Ġtor neo
du jo
Ð ½
Ġtritur adora
Ġsu jet
Ġni Ã±as
ica ntes
oc k
un dar
Ġgarant ÃŃa
Ġan alizar
ĠI nte
Ġcu Ã¡l
re v
ĠEnt onces
ĠF or
on se
in ario
Ġdemost rar
ĠT u
Ġre to
Ġopt im
ort ar
Ġm m
Ġneces itas
Ġf antas
Ġcomp ras
ÃŃf ico
ogra fÃŃa
l ia
Ġresp al
Ġdisp uesto
Ġajust e
Ġt antas
Ġdem and
n n
ĠD iv
ĠDan iel
Ġfrase s
Ġpresent an
Ġc uch
Ġlle gan
ĠPro y
Ġcap it
D A
U C
Ġesper ando
il aciÃ³n
gu ro
Ġdestac a
Ġutiliz an
Ġdisc urso
ĠPar que
Ġcir cu
Ġfun cional
Ġraz on
Ġest ratÃ©g
Ġjam Ã¡s
Ġf lor
Ġreduc ciÃ³n
S S
Ġliter atura
Ġpuer to
ust ri
Ġconvert irse
I V
ĠA C
Ġvive n
Ġp echo
on go
r ico
Ġconform e
Ġcom et
Ġn ueve
Ġcr ÃŃtica
Ġest ados
Ġact ores
Ġdi je
ĠF e
Ġdel ant
ĠA M
Ġcomple jo
Ġcier tos
Ġg uer
ĠSoci edad
Ġcomun ic
Ã ł
Ġdetermin ar
Ġcl im
Ġinv ierno
Ġsitu ado
or Ã¡n
Ġ3 2
al ucÃŃa
Ġdemoc racia
ĠNot icias
ĠE d
Ġsal Ã³n
Ġcult urales
ĠenseÃ± anza
Ġ200 0
d eres
or ado
Ġsente ncia
Ġcomp at
ĠseÃ± ala
ĠR esp
j ero
Ġanun cios
americ ano
Ġpier d
Ġorden ador
T U
ĠLat ina
Ġpersonal idad
Ã©n do
Ġf echas
Ġate nder
ibliot eca
Ġpierd e
Ġar reg
ĠFis cal
a k
ĠlÃŃ qu
Ġt rop
Ġin ci
Ġrecur so
Ġsal vo
h one
T ER
Ġacre di
ib ra
Ġtex tos
Ġesc uelas
re ndi
ici t
ide ncial
ter as
Ġact or
i Ã©
Ġsu ave
Ġrealiz an
o ces
qu ÃŃa
Ġale grÃŃa
Ġale j
3 4
Ġfacil it
Ġcal cul
Ġmin uto
Ġvend e
Ġsorp resa
Ġpop ulares
Ġac el
r ones
L O
ĠComer cio
st o
ĠNuev o
Ġest up
ĠR ÃŃo
ĠMedi o
Ġesc ap
Ġcuad ro
Ġquier a
ĠA lej
Ġdescub r
it h
Ġantigu a
Ġf iel
Ġapar ecen
Est o
ho w
er Ã¡
Ġh ice
Ġbre ve
ĠNe w
ĠR afa
ĠM et
Ġra to
Ġra p
Ġconst r
ru to
ica z
ĠFeder aciÃ³n
st ed
ĠInform aciÃ³n
Ġreci entemente
Ġadquir ir
Ġescol ar
Ġmo to
Ġad v
ir ar
Ġdeclar aciÃ³n
Ġcon qu
Ġh orm
Ġpermit irÃ¡
er tar
T odo
Ġsuper ar
ĠJ ul
Ġent radas
Ġcompon entes
Ġfotograf ÃŃas
Ġactu ar
Ġdesarroll ado
re tos
Ġfel icidad
Ġdi Ã¡logo
G O
fr ica
Ġdomin io
Ġt ort
P ues
ĠSal a
Ġrealiz ada
âĢ¦ .
ĠclÃ¡s ico
ĠPar ÃŃs
Ġdecid ido
Ġseg uros
ĠAnd roid
ĠP Ãºblica
Ġcol um
v os
? .
Ġvolv iÃ³
Ġvent ajas
Ġimp uestos
Ġespir it
ID AD
ĠIn st
Ġg ig
Ġasoci aciÃ³n
ĠE r
Ġcorrup ciÃ³n
Ġincrem ento
ma il
Ġman ual
erm an
ĠEst Ã¡
ĠH ospital
Ġsilenci o
ĠGran d
Ġan ual
s que
Ġtar if
Q U
Ġres al
ent as
Ġcorr iente
nd ario
omen aje
Ġadel ant
ĠP el
Ġmo ver
aj aj
Ġident ific
av era
Ġresp uestas
u jo
Ġgen era
ĠV il
Ġj unt
ĠPl ata
ĠHist oria
Ġcos te
Ġc uesta
Ġvul ner
ĠincreÃŃ ble
ĠU no
Ġadi cional
Ġpelig ros
Ġdorm it
Ġverdad era
ce ndi
l d
Ġdef ender
Ġaltern ativa
Ġent iende
ep res
l in
vent ud
i um
Ã¡ndo le
di eron
Ġcuest iones
Ġperiodi sta
Ġact ivos
ĠP C
ĠP az
Ġvisit antes
Ġzap atos
Ġfin alidad
Ġpart ida
ĠmÃ© todos
Ġconsegu ido
Ġf ant
am i
Ġparece n
Ġresta urantes
Ġaut Ã³n
T odos
e sign
Ġunivers idad
Ġnaci miento
ok ies
uy a
Ġperspect iva
Ġinclu ir
Ġhum or
Ã¡m aras
Ġl la
Ġpor ta
Ġs omet
ĠC OM
oc al
am bre
ri entes
ente n
e nce
Ġbaj ar
Ġmod ern
or ro
Ġreg las
ens iÃ³n
Ġt ÃŃtulos
Ġases in
inar ias
Ġcereb ro
Ġtall eres
Ġmal o
Ġpudi era
A c
iv ia
ĠAnd alucÃŃa
Ġs Ã³l
Ġrec a
ĠMuj er
Ġinte g
Ġinfl uencia
d esign
Ġcot id
ĠFest ival
ion a
alu Ã±a
Ġinteres antes
Ġutiliz aciÃ³n
Ġlo gra
ec o
Ġco legio
Ġhuman idad
Ġbat alla
an al
er ta
. [
ĠI m
Ġep iso
Ġdecor aciÃ³n
Ġint ento
Ġg ira
Ġesc ala
Ġaco nte
ara go
Ġgra v
a x
Ġcamp os
e sh
Ġex c
u aciÃ³n
Ġviv iendas
ĠCÃ³r doba
Ġcant ante
Ġacab ar
Ġtrad icionales
I P
em at
ice nci
Ġv ay
Ġpro to
Ġintelig encia
Ġ3 4
eci miento
7 5
ĠG ra
Ġpl ano
Ġbien estar
Ġdeclar aciones
Ġbol sa
ĠsÃŃnt omas
Ãº an
ĠN atur
ĠEnc uent
Ġargent ino
Ġus ando
Ġlanz amiento
Ġsent imientos
Ġcan cel
Ġf as
ĠAr m
a que
Ġtra e
Ġamig a
ore ar
ĠAc ad
Ġdar Ã¡
Ġcier tas
Ġrelacion adas
ĠdÃ©c adas
Ġprepar aciÃ³n
Ġcomb inaciÃ³n
Ġaz Ãºcar
ĠI d
ase s
ic ano
Ġedif icios
r ica
Ġcuent o
Ġhor ario
Ġvig il
Ġm uebles
ĠE ra
Ġopin iones
Ġprev ia
Ġan ot
Ġconsider ar
CI A
Ġtemp or
ĠJ er
Ġvos otros
ĠCon st
ci ales
ĠAl m
ne y
ĠLond res
Ġcam is
Ġent er
Ñ Ģ
id aciÃ³n
Ġar r
ĠlÃŃ deres
Ġesfuer zos
ĠG estiÃ³n
di os
Ġlogr ado
P uede
Ġdel ito
Ġofrec emos
Ġh osp
la ga
Ġpromo ver
Ġexp an
Ġv Ã¡l
Ġcre a
Ġf arm
ĠLat ino
Ġ design
ĠC O
ĠPrem io
Ġso f
Ġefect ivo
m ento
iz adas
ĠÃ¡ lb
ube s
Ġs osp
Ġfra cas
d esf
ist er
Ġpro fe
ĠS Ã³lo
Ġs il
Ġform an
Ġcamb ia
r ios
Ġdirig ido
Ġorganiz ado
ĠJo hn
T R
Ġsin g
Ġa ver
us os
Ġdificult ades
Ġac ero
Ġreg ional
Ġsegu imiento
ej e
Ġdescan so
Ġl um
Ġprob able
Ġpartic ulares
Ġl ong
Ġtu ve
ter rÃ¡n
Ġvest ido
Ġb ro
ĠM ex
Ġ3 3
Ġasegur ar
ĠA R
ĠProt ecciÃ³n
Ġfac tor
ĠOr d
ĠDer echos
Ġdici endo
Ġvie jo
t il
ĠH asta
ĠIs rael
ĠAl b
Ġmi ra
Ġinter na
Ġejerci cios
ez ca
ĠC Ã¡
Ġ desf
Ġcor ta
ĠM ir
at amente
Ġconci erto
Ġnaci Ã³
Ġal tas
Ġgan ado
b ra
Ã± ar
ĠcompaÃ± ero
Ġmir ar
Ġjard ÃŃn
Ġsoci os
Ġinici ar
Ġconsult ar
Ġprev isto
Ġ ;
4 8
Ã© ut
Ġestable cimiento
Ġaprovech ar
Ġ200 5
em Ã¡tica
ĠP ubl
ĠDec reto
Ġgu itar
Ġgr ad
as te
lam ent
ĠSe gun
ĠD ig
Ġj udicial
Ġterc eros
Ġinvert ir
Ġper ros
Ġcol ocar
Ġin greso
res s
ific aciones
Ġpre venciÃ³n
Ġme ter
ĠMo v
S o
Ġcre cer
ĠEn rique
Ġm apa
ĠV ar
ĠÃŃ nd
ur ado
ĠO n
Ġa use
Ġestar Ã¡n
Ġconcep tos
ur g
e sque
ĠP os
Ġcorrec to
Ġf an
Ġherm ana
Ġpas iÃ³n
Ġman ip
ic ha
Ġef icaz
Ġimpres iÃ³n
Ñ ģ
Ġimp er
ite n
Ġcompro bar
Ġpos icion
Ġp oca
Ġ15 0
Ġinf in
Ġpubl icar
rÃ¡f icos
Ġposter iormente
Ġb us
Ġret ro
Ġposit ivo
Ġdiag nÃ³
Ġdi vid
ĠB usc
ĠCast illa
Ġpe nal
Ġsegura mente
Ġfran ce
Ġgu ard
ĠD em
Ġmuest ran
Ġident ificar
Ġsex uales
Ġdibuj os
Ġagr up
Ġalquil er
n i
ĠCat aluÃ±a
Ġref ug
Ġtran quil
Ġobserv ar
Ġej e
Ġquiz Ã¡
Ġmaest ro
Ġoc ult
Ġc Ã¡r
Ġgust an
ab el
Ġc itas
C omp
Ã³m ica
Ġaf irma
Ġencont raba
Ġescrit or
Ġingre dientes
Ġp ond
Ġextra ordin
Ġar ena
Ġcorr er
Ġdescuent o
b la
Ġblan ca
ud os
Ġinclu ido
ing ton
Ġespal da
Ġrec onoce
ĠK e
Ġh ojas
Ġdorm ir
Ġanun cio
Ġemp rend
at orios
Â ®
iz an
Ġapar ecer
igra ntes
Ġcorrec ta
Ġple na
S on
ĠJap Ã³n
I G
sc ar
Ġcom isiÃ³n
Ãº c
ame s
Ġsu pl
Ġpriv ile
el os
ĠEspaÃ± ola
Ġhotel e
Ġef ic
Ġhotele s
ĠLe er
Ġdemoc rÃ¡
Ġprepar ar
Ġh omenaje
I EN
Ġcam in
Ġmuer tos
Ġh ost
Ġt ren
z on
ivers ario
Ġsue Ã±os
ĠA P
Ã³m ico
br ica
Ġcl ima
Ġespect Ã¡culo
Ġporcent aje
Ġentre ten
arago za
im amente
ĠCom itÃ©
Ġamist ad
Ġm ort
Ġpar eci
AD O
ĠDirect or
ĠlÃŃmite s
Ġcolect ivo
3 8
Ġco ordin
s ado
ĠD os
ide o
Ġev it
i am
Ġdi l
Ġc int
Ġavent ura
Ġnov ia
Ġgast ron
Ġcont ras
ĠNav idad
Ġconvoc atoria
m bol
Ġlet ras
Ġcap ÃŃtulo
Ġmet al
ĠD iego
Ġaf ecta
od e
Ġrealiz arÃ¡
ĠAp ple
Ġpar ecido
Ġcu adr
x x
Ġcomb ust
t ando
Ġper u
pe n
Ġanter iormente
ĠÃģng el
Ġ4 8
SO E
r ÃŃan
Ġt anta
ust ral
Ġa eropuerto
Ġapro p
Ġmon it
Ġauto b
est er
em in
Ġp ista
Ġest atal
ĠcÃ©l ulas
3 9
Ġch at
Ġinmedi ato
Ġm oral
Ġcab e
Ġnorm a
e sl
Ġclar amente
Ã¡t il
Ġmunicip ios
Ġ19 5
Ġb l
Ġc ientos
Ġelabor aciÃ³n
itu ales
Ġdestac Ã³
Ġconvirt iÃ³
ĠOrd e
Ġdenun cia
Ġv otos
Ġcerc ano
Ġprest ig
ĠAs amblea
Ġa gencia
jet as
at ir
ĠI II
ĠA h
ab iliz
Ġbon ito
ce n
Ġlib res
Ġinvestig adores
Ġ esque
Ġempres arial
ur s
ĠU ru
Ġemo ciones
ĠC reo
ĠSi empre
Ġintegra ciÃ³n
Ġal ar
Ġpr Ã©st
Ġeleg ido
Ġcoche s
id el
ci dos
Ġbot Ã³n
ĠA f
d esh
u era
H e
Ã© roe
ĠL le
C ar
Ġpote nci
Ġac onse
Ġtier ras
n idad
Ġconm igo
Ġact ivo
Ġun iverso
Ġdise Ã±os
Ġtriun fo
-- --
ĠB as
ĠvÃŃd eos
ĠvÃŃct ima
ĠI l
Ġsu jeto
ĠR adio
Ġ3 8
bo les
Ġidi oma
Ġpat rimonio
Ġmuer to
Ġsoci o
Ġser io
Ġ dra
Ġm ac
s ap
Ġref or
Ġcul pa
ĠC el
Ġestr ella
Ġest ancia
in ales
M P
Ġ ?
Ġa isl
Ġalcoh ol
Ġsign ificado
Ġtray ect
Ġambient al
Ġbra zos
ĠSalv ador
Ġpron unci
re ma
ar las
3 7
Ġcomb in
ĠEj ecutivo
b ia
ĠeconÃ³m icas
Ġexact amente
Ġint erm
st os
Ġofici nas
Ġtra to
ĠDis p
Ġrev olucion
Ġfamos o
Ġcorrespondi entes
st er
D eb
Ġded icado
Ġcuel lo
ĠH ace
Ġllegar on
Ġex itos
Ġcar reras
Ġmilit ares
Ġleg ales
Ġla ter
Ġsonr isa
w a
ĠM is
Ġm ental
Ġespectac ular
ĠAl berto
Ġest ren
Ġex hib
Ġbrin dar
Ġ desh
Ġmol est
ang el
Ġigual dad
ĠM el
Ġnoche s
Ġceleb ra
Ġpl atos
ĠE cu
it at
il io
ĠR ub
ĠCam pe
int er
Ġproporcion a
Ġexig e
Ġrepar aciÃ³n
ĠC E
qu illa
ĠSuper ior
Ġc able
Ġcateg orÃŃas
Ġacces orios
Ġre ct
ĠX V
Ġcontin Ãºa
Ġpar ejas
Ġo jo
Ġact iva
ema il
Ġmoder no
Ġada ptar
ĠPol ÃŃtica
d ados
Ġgobier nos
Ġme todo
m er
Ġfinanci era
d icas
erc er
Ġespecial istas
ĠP h
ar ro
d esm
Ġbat erÃŃa
Ġv uelo
Ġt h
Ġmas cul
Ġcur ios
Ġver siones
qu ia
Ã³ graf
ĠcientÃŃf icos
4 7
ĠC Ã³digo
e sÃŃa
Ġpas an
Ġv oto
Ã §
Ġgras a
Ġpar ed
Ġgust e
Ġlat ino
Ġmont aÃ±a
Ġex ces
Ġport al
ĠR u
Ġcif ra
Ġqu it
Ġnorm ativa
Ġadolesc entes
I X
Ġ om
Ġabs or
Ġinterpret aciÃ³n
Ġac ondi
Ġmer ece
Ġt estig
Ġsec reto
Ġle ÃŃdo
ĠAut Ã³n
ĠB at
T he
mo b
ĠS ch
ab ilidades
Ġsegu idores
ĠB ro
Ġmexic ano
Ġprocedi mientos
Ġj ud
ĠTe atro
ĠAl f
is co
Ġbici c
Ġcrit erios
Ġconsider ado
un ciÃ³n
if orn
Ġorigin ales
ĠsÃŃ mbol
Ġcont igo
Ġem ocional
ĠAnd rÃ©s
ĠA ra
ĠSo bre
F E
ĠPD F
Ġejemp los
Ġ4 00
Ġdej an
Ġintere sa
Ġause ncia
Ġimpres cindi
ĠN Âº
Ġinstrum entos
c ot
Ġcr i
ĠelÃ©ctr ica
Ġin n
Ġrec o
Ġese ncial
Ġind ÃŃge
Ġeleg ante
ĠC ant
ho p
Ġgener almente
Ġven ir
1 00
Ġoblig aciÃ³n
ĠJ uegos
Ġ desm
am Ã¡
Ġaf icion
l i
s ig
ĠA ir
Ġbas ado
Ġt um
Ġcon ces
Ġre se
Ġconv iv
Ġprev io
Ġnov edades
Ġapar iciÃ³n
d aba
u ario
Ġa leg
Ġfabr icaciÃ³n
Ġse n
Ġequilib rio
ore n
Ġfu i
Ġar ras
Ġr ique
Ġant icip
ĠM uy
Ġpl ato
Ġban cos
ĠV is
it s
Ġgas to
ot or
ĠD a
0 5
Ġcomp rob
c ra
Ġt op
Ġexpl ic
P E
Ġvent ana
Ġcan ales
ĠUn idad
Ġefici encia
ĠM c
g ica
ĠCo legio
Ġterm ina
s ic
Ġt ec
ĠN uestra
Ġfundam entales
aliz Ã³
Ġha gan
Ġpas aj
Ġquer er
ÃŃ na
Ð¾ Ð
ci Ã³
Ġestudi ante
Ġguar dar
Ġlect or
ĠC lar
ĠfenÃ³me no
Ġun e
Ġsegu ido
Ġt ocar
Ġprepar ado
Ġresp ondi
Ġconf erencia
ur r
Ġdeci dir
Ġin cendi
Ġl lor
Ġrepresent ante
S al
Ġten gas
S E
Ġtr im
rit a
Ġgan Ã³
Ġoper ativo
ĠFac ultad
Ġpod remos
Ġav ance
ge nda
Ġningun o
Ġpermit a
Ġdich os
Ġado pt
ur ÃŃa
ĠE qu
ant emente
ĠUn ido
Ã³m ez
Ġb ras
I nt
Ġdul ce
Ġenf oque
ĠF amil
Ġactu aciones
ĠTur ismo
Ġpid iÃ³
l t
Ġinfra estructura
Ġm usc
ĠUru guay
un do
s er
Ġenc ab
r adores
ific ada
Ġtest im
l var
ĠAl cal
Ġb oda
Ġcoinci d
Ġgust ado
Ġsol ar
Ġintegra ntes
rim ir
Ġllam adas
Ġdefin iciÃ³n
ta nte
l le
emp o
Ġescrib e
Ġpe da
A ct
Ġtal ento
at em
ĠMo nte
ond as
Ġpubl icÃ³
Ġser ia
ĠtrÃ¡ mite
Ġtab la
Ġresp onde
ĠOrde n
Ġvig ente
4 4
Ġrep ort
Ġpone n
Ġ ic
ĠAr te
udi o
Ġtrayect oria
Ġjug ue
ĠA ma
Ġp us
Ġgobern ador
7 8
Ġref lej
Ġpan or
Ġinvestig aciones
M ientras
Ġdel icios
r el
venci ones
Ġtrabaj an
Ġad mit
ce pt
Ġgratu ito
Ġrev isiÃ³n
Ġprogram aciÃ³n
g ando
Ġcar tas
ĠMÃ¡ laga
ob res
D I
hab ilit
Ġ200 4
ner g
Ġpol vo
Ġconsum idores
Ġcandid atos
Ã³r ico
Ġres uel
Ġdos is
Ġinmedi atamente
Ġpla zas
Ġaltern ativas
ĠRafa el
ĠacompaÃ± ado
cion ar
Ã¡ culos
Ġvuel to
Ġad quis
Ġcel ular
Ġarquit ectura
nd as
ve z
Ġmodif icar
ĠE se
Ġinvers iones
Ġdif erenci
ĠAs imismo
Ġnut r
in io
Ġcompete ncias
ĠHum anos
Ġant i
im nas
Ġpien sa
ĠEl la
IC O
ĠPuede s
ĠTra baj
Ġa je
Ġtend rÃŃa
Ġtrat amientos
Ġcol on
Ġap uesta
Ġdocum entaciÃ³n
ul to
Ġtransform aciÃ³n
Ġpro c
Ġlect ores
Ġr ut
A d
ĠdiseÃ± ado
Ġnumeros os
Ġpobre za
qu ito
al t
3 1
uc le
ue nc
Ġdeb ÃŃa
ĠC ir
O C
it is
ul ada
tor no
di z
Ġcar gos
Ġf Ã³rm
ĠV ÃŃ
Ġcomple tar
Ġal t
Ġcons ist
as as
Ġcif ras
Ġprofun do
Ġreun iones
Ġ daba
Ã ¨
Ġre emp
s ito
log ÃŃa
Ġneg ra
ĠP SOE
er tos
Ġreg iones
Ġagre gÃ³
iere n
Ãį A
Ġv id
ĠPop ular
Ġtend encias
Ġclas ificaciÃ³n
ran a
ĠPad re
S A
' .
Ġ7 5
rom e
er ales
or i
Ġcontemp orÃ¡n
ĠTran sp
i one
Ġocur riÃ³
ĠS im
Ġasp ira
ĠAr tes
Ġpr isiÃ³n
Ġre n
Ġsin c
b y
ĠÃ¡lb um
Ġformul ario
Ġmedic amentos
Ġdirig ida
c Ã³
ĠÃ ļ
Ġconcent raciÃ³n
Ġexpect ativas
Ġtermin Ã³
l ÃŃn
Ġco okies
A m
Ã¡ndo lo
3 2
s gra
Ġcomplic ado
ĠbÃ¡s icos
Ġno tas
ĠA lex
ÃŃ c
Ġser ies
Ġprop one
Ġal ber
Ġact riz
am ina
Ġembara zo
ĠC D
Ġt oca
Ġh omb
Ġin qu
Ġcubr ir
Ġgra ves
Ġlabor ales
h i
at ario
C ada
Ġcuer pos
Ġm ut
Ġqu itar
Ġcrist al
Ġtr iste
ĠI gu
Ġdoc entes
Ġdesarrol la
Ġver s
ĠN orm
ĠAt l
Ġecon om
w er
Ġdese e
Ġsobre viv
ĠS eb
Ġpl Ã¡stico
Ġempres arios
Ġcontra tos
Ġso ber
Ġve nci
Ġata ques
Ġconoci dos
ĠOrgan izaciÃ³n
Ġvirt ual
Ġinstal ar
Ġdefin ir
ĠL uc
Ġs Ãº
ĠDÃŃa z
e go
Ġprotagon istas
Ġfort al
Ġpier nas
Ġp las
Ã¡t icamente
Ġprofund idad
Ġme z
Ġmin ist
ut amente
Est os
Ġt ol
Ġm Ã¡g
Ġg ir
Ġco leg
Ġintelect ual
4 6
p et
Ġro ck
Ġchoc ol
ĠM uchas
icar do
Ġsac r
ĠEcon omÃŃa
ion s
Ġn a
gan os
itar ias
nci ones
Ġro dil
oy a
Ġg alle
Ġm ando
Ġeduc ativo
rip t
Ġca e
Ġpe di
Ġmult ip
Ġrecom iendo
Ġmunicip ales
Ġbol s
ĠF lor
Ġban c
Ġcompar aciÃ³n
ter os
Ġalem Ã¡n
Ġdetermin ado
Ġolvid ar
Ġb orde
Ġco pia
Ġl iqu
ĠB ra
ĠH ol
te ncia
er do
Ġcr im
Ġ dor
Ġinter act
e no
Ġfig uras
Ġacuer dos
ĠAlgun os
Ġefect u
Ġpos iciones
U M
ÃŃ v
um pl
ĠE du
Ġmont Ã³n
Ġa Ã©
Ãº r
ĠG Ã³mez
Ġllev arÃ¡
ĠD u
Ġpar al
Ġse p
Ġrep ro
Ġtom ando
ĠMuj eres
Ġv ÃŃas
Ġfil osofÃŃa
Ġcont Ã³
Ġse siones
Ġtelev is
Ġgo les
ĠhistÃ³r ica
g aciÃ³n
Ġaf ront
Ġcont rar
Ġcob ertura
Ġnorm almente
ÃŃcul a
Ġr ival
19 9
Ġc Ã¡maras
Ġcambi ado
Ġinterc ambio
Ġte nsiÃ³n
ĠR oma
L uego
ĠW ill
ĠB ien
âĢĻ .
Ġtar jetas
Ġlong itud
Ġev idente
ide n
on ios
Ġ200 3
ĠJ im
Ġha z
ĠÃģ lvar
Ġse t
ĠCat al
Ġrealiz ando
F in
Ġconstit uye
or ld
Ġproy ect
ire mos
Ġdef ine
Ġtransm isiÃ³n
Ġapoy ar
d ete
ĠGu adal
vo z
Ġgr ados
Ġvis ual
Ġcr u
Ġprove edores
Ġsatisf acciÃ³n
Ġcomb ate
Ġ3 7
Ġ201 9
Ã© sp
Ġal f
Ġrep art
oc as
ĠV all
Ġext remo
Ġpod Ã©is
Ġapar te
Ġg ay
roso ft
Ġfis c
0 9
Ġoc cid
Ġmar ido
Ġman eras
Ġinter no
Ġfest ival
ent an
i adas
Ġpue nte
Ġub icada
ug ÃŃa
ĠF i
f l
Ġpien so
ustri ales
Ġr ig
Ġregres o
Ġdisc ut
ĠcÃ³mo do
Ġsigu iendo
Ġciudad anÃŃa
Ġr ico
Ġmar gen
Ĩ Ĵ
Ġun if
0 6
ĠHern Ã¡ndez
Ġre per
Ġinvit ados
Ġrelacion ado
Ġcer ve
Ġreconoci do
Ġhip ot
Ġdesay uno
Ġrev oluciÃ³n
Ġherm osa
Ġactu alizaciÃ³n
ĠZ aragoza
em Ã¡ticas
Ġs h
Ġindep endencia
Ġsig los
ĠM ario
d ud
Ġcuest ion
Ġrec op
Ġ <
Ġan iversario
ag ue
ĠInvestig aciÃ³n
ĠAlej andro
le to
ĠV iv
Ġextranj ero
Ġcon ve
an ca
Ġret ras
Ġtom Ã³
Ġbas ada
Ġir re
c Ã³n
Ġaum enta
ĠcÃ¡r cel
ĠL ima
Ġdest ru
ater ra
ĠM ol
Ġaloj amiento
Ġpas eo
Ġa er
ĠDis eÃ±o
ĠG ob
he s
Ġenf oc
Ġn ace
Ġexpres Ã³
ĠE nerg
n y
Ġpar edes
Ġsac erdo
ĠPrim era
E sc
Ġin just
Ġabog ado
iforn ia
Ġintelig ente
d ras
Ġmor ir
Ġart if
P od
ĠProv inci
Ġdig itales
Ġ ence
rar on
ĠG a
Ġmen Ãº
' s
Ġo x
Ġconfig uraciÃ³n
0 8
ĠCar men
Ġ dud
ĠvÃŃ nc
Ġamena za
0 7
As imismo
ĠGran ada
Ġlet ra
ĠdÃ© b
Ġcont actar
s b
Ġespirit ual
Ġdi pl
Ġlo ok
Ġentren ador
Ġp Ã¡r
O D
Ã¡st ica
Ġmult itud
Ġlid era
Ġa go
ĠdiagnÃ³ stico
Ġsu cedi
Ġinsc ripciÃ³n
Ġ5 5
Ġconc lu
Ġrecomend able
Ġexte nsiÃ³n
ĠEcu ador
Ġconse jo
Ġorgan ismos
Ġintens idad
Ġent us
c or
ĠmÃ¡ quinas
Ġcapacidad e
Ġrecom ienda
Ġaudi encia
" :
Ġar ma
re nte
Ġcapacidade s
4 9
Ġserv idor
Ġdej amos
got Ã¡
e ar
Ġpens ado
Ġhace s
201 7
Ġdependi endo
Ġext rem
Ġform ado
Ġdi entes
Ġve s
ĠL ÃŃ
Ġn aciÃ³n
Ġcap a
Ġrespect ivamente
ĠA br
Ġa qui
ios as
Ġve inte
Al gun
Ġten ia
Ġfinanci ero
ap as
Ġdemost rado
Ġperiodi stas
Ġlegisl aciÃ³n
ĠPÃºbl ico
Ġg ana
Ġtej ido
ĠM us
Ġc ho
Ġfran qu
Ġre tra
Ġs orte
Ġf a
u an
Ġv ital
Ġg or
Ġinstitu cional
Ġrest os
Ġsufr ir
Ġ dete
ĠU su
Ġp ude
ant iles
Ġconduc tor
Ġl isto
ĠD ar
Ġs ant
Ġdar se
ĠNeg ro
ĠN aciÃ³n
Ġac ord
g ano
ĠF oto
Ġcre ma
Ġreflex iÃ³n
Ġdese sp
Ġfab ric
ĠJ un
Ġvir us
ĠNic ol
Bue no
Ġl uces
Ġcontinu a
Ġemer gencia
Ġinter f
Ġtom ado
Ġencontrar Ã¡s
Ġh echa
ĠCons ult
Ġtend rÃ¡s
ĠH aci
Ġaprob aciÃ³n
Ġdel itos
Ġdeport ivo
Ġcer em
ĠW ar
Ġcomod idad
Ã³ f
ĠÃ¡r boles
Ġefici ente
ĠGrand e
Ġmol ino
Ġav iÃ³n
Ġglo b
s ol
ĠaÃ± ade
Ġinici Ã³
P ar
ĠAr ch
U no
Ġdij eron
ec ed
Ġti ro
Ġextranj eros
ĠÃ© stos
Ġinforme s
ent imiento
Ġinstrum ento
Ġrealiz adas
Ġev idencia
t in
Ġexp los
ĠS U
iÃ©n do
e nes
at illas
Ġdi aria
C H
Ġimp uesto
ĠB or
Ġfil m
Ġas untos
Ġbras ile
Ġcree n
G A
Ġacab ado
rib le
Ġterra za
edi r
h or
ĠT ex
C o
Ġdeber ÃŃan
Ġmoder na
Ġinteres ados
Ġcont amos
Ġfacil idad
Ġan aliz
ell ano
iz Ã³
un dir
ĠR iv
Ġquier as
id er
rÃ³ leo
Ġrel ato
Ġ email
Ġig nor
Ġ it
Ġcircu ito
Ġt era
ĠU E
Ġtur no
Ġpar o
ÃŃ mp
Ġabsol utamente
Â¡ Â¡
ã ĥ
ĠA gencia
Ġprofun da
Ã³lo gos
Ġpubl icada
Ġdivert ido
Ãº p
ar les
Ġt able
Ġpreocup aciÃ³n
Ġp obres
r ing
Ġded ic
Ġreduc e
Ġra ÃŃz
Ġrel oj
Ġpre viamente
Ġhabl amos
Ġdoc ente
am as
Ġestr Ã©s
Ġdirig e
im it
Â ©
ient al
ĠBl ack
Ġc inta
Ġnumeros as
ĠSeb ast
C ons
Ġcorrect amente
@ @
ent ando
ĠG er
Ġproduct ores
ĠCast ro
Ġcom entar
Ġdisc rim
ĠO ro
Ġfeder al
ĠiP hone
Ġpre venir
Ġdescar ga
Ġactu aliz
Ġâ ĨĴ
Ġrefer ente
ĠM os
Ġdi versidad
ĠcientÃŃf ico
Ġest adio
Ġexp ul
ĠmÃŃn ima
Ġ6 5
Ġponer se
id al
Ġinf ancia
Ġbaj os
un as
ĠH D
al lar
Ġasist entes
ĠPro p
Ġla ment
Ġencont rÃ³
Ġmag ia
Ã¡n icos
Ġalum no
Ġimag in
ul te
n rique
b amos
Ġenl aces
Ġconvers aciÃ³n
Ġeditor ial
rag Ã³n
ĠPal acio
... ]
Ġmedi cina
ĠVir gen
Ġinform a
Ġlic encia
ĠI r
ĠÃ¡r bol
e sgra
t ique
Ġestar ÃŃa
d esgra
Ġc ero
iv ales
est ro
ĠP et
Est amos
pe s
Ġperten ece
R esp
Ġcoment Ã³
ra te
Ġequ ival
or nos
ĠDep ort
Ġahor ro
Ġtot alidad
Ġcer rado
Ġ end
ĠT odas
Ġextra Ã±o
Ġap as
I R
r icidad
ĠCar ta
Ġdif usiÃ³n
e do
undar ia
ĠS oy
S ÃŃ
Ġcampe Ã³n
f al
ac os
Ġgra cia
Ġperten eci
iere s
Ġocur rido
Ġexplo taciÃ³n
ced ido
ÃŃ dos
Ġc ena
ĠS it
ĠelectrÃ³n ica
Ġoblig aciones
Ġdisc apacidad
ie ta
Ġexclus ivamente
ĠR icardo
Ġdisf ru
r eros
Ġsem ej
Ġpet iciÃ³n
Ġdificult ad
Ġestruc turas
Ġdi as
Ġfra g
rig o
Ġc ach
Ġco le
umb res
ent Ã³
ĠR osa
ug al
ĠPod emos
Ġital iano
ĠB ern
Ġh ambre
Ġdeclar Ã³
Ġded icada
Ġdro gas
C ol
Ġexclus iva
Ġ desgra
Ġfinanci aciÃ³n
Ġf ot
u v
ur ias
H a
gl aterra
ĠCont in
Ġil usiÃ³n
Ġconserv aciÃ³n
Ġs om
d r
ĠS tar
ĠP ARA
Ġterc ero
Ġtransp ort
Ġimp lant
uc a
Ġaport ar
Ġcomp uesto
Ġp len
Ġcons ci
ge s
Ġsuper iores
d amos
ĠcrÃŃt icas
Ġp unta
Ġese ncia
Ġ3 9
Ġproduci do
6 5
Ġencar gado
d eg
ĠN uestro
Ã¡ rez
Ġllev aba
Ġanc ho
Ġantigu os
Ġa ux
Ġconflic tos
c ado
Ġgan ador
Ġpo esÃŃa
dad or
ĠA ntes
Ġfinanci eros
Ġin me
Ġproduce n
Ġvis u
F ue
Ġav ances
Ġex ceso
idar idad
ĠPa ÃŃs
Ġt echo
Ġrec ha
d f
Ġefect iva
ĠA S
Ã± ez
ĠFel ipe
Ġus ado
ÃŃcul as
ib er
Ġelim in
ĠBol ivia
les ias
ĠEE UU
Est as
Ġr ural
iz aciones
E nc
Ġap orta
ab as
el aciÃ³n
ent ados
Ġex cepciÃ³n
ĠE sa
tor ias
Ġayud an
Ġex amen
ĠP S
iende n
in dic
Ġsale n
Ġconduc ta
Ġtranqu ilidad
Ġvide oj
ĠEdu ardo
Ġles iones
Ġven ido
om un
ĠB il
Ġib an
Ġpaque te
âĢ¦ âĢ¦
Ġv uestra
ci one
U D
Ġllev o
Ġre acciÃ³n
Ġhier ro
Ġh ÃŃ
Ġhor no
Ġt onel
ĠCal ifornia
ĠC las
Ã³l ico
Ġbar ra
ĠS ir
Ġexist entes
Ã³ vil
is ion
are ncia
ĠDomin go
Ġrelig iÃ³n
Ġautor izaciÃ³n
Ġsal udo
Ġb otel
Ġcons ciente
ÃŃ ci
ip s
Ġencuent ros
Ġocup a
A y
Ġequiv oc
Z A
n ing
Ġinteres ado
0 4
Ġcam inos
ĠH ombre
Ġluch ar
Ġsociedad e
Ġru ido
ĠBo gotÃ¡
Ġposit iva
ĠS ud
ier te
ĠCont rol
Ġcic l
americ anos
Ġasist ir
Ġcom edor
Ġsalud able
Ġda Ã±
Ġpa gos
Ġsociedade s
Ġres idencia
ra be
Ġdistint o
Ġo cul
ĀĀĀĀ ĀĀĀĀ
Ġpendi ente
Ġrom per
ĠIn glaterra
Ġcre atividad
Ġtend remos
ĠPod er
Ġcomp ens
Ġre cepciÃ³n
Ġplata formas
Ġesper aba
Ġest Ã©tica
Ġrique za
rib e
ĠL OS
ĠIndi a
ig ar
Ġdirect ora
Ġaf il
ma g
ĠOfici al
Ġpermit ido
Ġcol orear
Ġtemp oral
ĠI P
ĠmÃ³ d
Ġatract ivo
rÃ¡f icas
ter ÃŃa
uy o
n an
Ġ200 2
Ġaut os
a h
Ġdest in
Ġesc la
Ġconf ort
Ġsec und
Ġcamp aÃ±as
Ġl l
Ġrec etas
Ġemo cion
Re s
ĠQ uer
Ġrecuer dos
on emos
Ġin ver
n it
Ġb il
ĠEspaÃ± ol
Ġgig ante
Ġcul p
Ġmecan ismos
Ġle e
V er
ac ciones
Ġinst ante
Ġdescrib e
ore a
d esl
Ġchocol ate
Ġal b
Ġindivid uales
ic ho
Ġunivers idades
at orias
Ġint enta
B C
Ġflu jo
ue ble
Ġdisc usiÃ³n
im idad
Ãº e
a unque
ĠN aciones
ven il
Ġpil oto
A quÃŃ
Ġigual mente
Ġ200 1
Ġemp uj
Ġlab ios
Ġfue se
Ġband as
Ġinst rucciones
ĠEx t
Ġinclu idos
ĠÃ¡n imo
ĠIncl uso
ĠComun icaciÃ³n
e nrique
ĠH erm
Ġafect ados
re ci
Ġ eg
ĠSant os
Ġcuar ta
Ġper se
f os
Ġconven io
la y
ĠEstudi os
Ġa gar
Ġagre gar
Ġfront era
Ġpod amos
r isto
u le
ĠcuÃ¡ les
Ġp ura
og rÃ¡fica
ĠH or
ĠMay or
Ġtraduc ciÃ³n
ĠelÃ©ctr ico
Ġbrilla nte
ĠCult ural
Ġperci b
Ġcla ves
ĠI V
Ġp ic
Ġcant idades
s ast
em ento
Ġosc uro
Ġsomb ra
Ġampl iar
c ciones
Ġcooper aciÃ³n
Ġmaest ros
Ġescrit ura
as is
Ġpens amientos
Ġcam inar
Ġreb el
ist emas
Ġdiv isiÃ³n
Ġap lica
Ġtrabaj ador
Ġrep roduc
Ġadi cionales
Ġv eter
.... ....
Ġut il
Ġalmacen amiento
Ġc eb
P ubl
ĠU sted
in ch
Ġpais aje
ĠReg istro
Ġtemper aturas
Ġdismin u
ĠGab ri
Ġun iÃ³n
ĠmÃ© dica
m Ã¡s
Ã³n imo
to Ã±o
Ã ļ
Ġmon um
Ġbaj as
Ġprofe siÃ³n
Ġeduc ativa
Ġ desl
Ġf um
ĠS ue
Ġr omp
ash ington
Ġfin alizar
ÃŃ g
Ġtom e
Ġsal ido
Ġfil t
f il
Ġnecesit amos
ga z
Ġg er
Ġ enrique
6 6
Ġmone da
Ġmanifest Ã³
Ġdocum ental
Ġrec re
Ġest ric
Ġcu antos
Ġ !
ĠM ejor
Ġabsol uto
Ġquier an
A n
Ġpod ÃŃan
Ġintro ducir
i ja
ran d
- .
ĠV an
Ġdem uestra
Ġcuidad os
ĠelectrÃ³n icos
M I
sta gram
Ġnaci do
Ã³ t
Ġres umen
ĠR io
ĠProy ecto
Ġat rib
Ġ ï
Ġar que
Ġmet ro
Ġbal ance
Ġencab ez
c ada
Ġimp art
Ġfir me
Ġcar iÃ±o
ĠD ra
Ġdeb ut
ĠQu Ã©
ĠM u
Ġcu yos
Ġest abilidad
Ġper ju
ad Ã¡
ĠMic rosoft
Ġbar co
Ġfabr icante
Ġespecial ista
Ġtrim estre
Ġl ados
Ġdime nsiones
Ġjue ga
Ġpubl ic
uc o
ĠPla y
Ġn omin
Ġpre dic
ur an
Ġurb ano
Ã¡nt ico
Ġmost rÃ³
mob ili
Ġado p
ut or
ĠbÃ¡s ico
Ã³n icas
Ġm Ãºsc
Art ÃŃculo
nt a
ĠEsp er
Ġins ist
E mp
âĢ¦ )
ĠPers onal
Ġn Ãºc
p r
Ġho ja
at ÃŃa
ĠA uto
Ġin ex
Ġmuch ÃŃsimo
Ġej Ã©rcito
Ġcomp osiciÃ³n
ĠBue no
Ġimplem entaciÃ³n
ĠEst oy
Ġeurope o
Ġmur iÃ³
Ġcont rad
Ġrecomend aciones
ĠDi ario
ist ar
Ġca ut
Ġcert ificado
Ġa genda
uc ar
onal d
Ġin genier
Ġconstitu cional
8 8
Ã©m ica
. âĢĶ
ĠT emp
AL ES
Ġherm oso
] .
Ġus an
Ġcale ndario
ust o
CION ES
Ġper diÃ³
Ġbos que
Ġur ban
n ve
Ġjug ando
Ġinst ancia
Ġentus ias
Ġindivid uo
Ġx D
ĠestÃ¡nd ar
H asta
Ġag ente
uest ras
Ġdesemp eÃ±o
Ġfabr icantes
Ġpro ven
Ġrue da
Ġinici ativas
Ġinmedi ata
Ġindivid uos
ar i
Ġimp orte
Ġre ndi
M S
e nve
Ġdesemp eÃ±
ĠA do
ej os
Ġnar an
Ġir reg
am in
Ġprim avera
la nte
Ġej ercer
Ġadapt aciÃ³n
Ġc ulo
ĠEx ter
Ġba ilar
ĠseÃ± ora
Ġorganiz ar
ĠT i
Ġpr os
te o
l ie
Ġperm iso
b ue
Ġeurope os
U T
Ġprivile g
ÃŃt ico
Ġmar ch
ĠUn idas
ent arios
ĠDig ital
Ġciudad ano
v in
ul aciones
ĠÃŃnd ice
ĠRe yes
ĠD atos
Ġh ig
Ġr utas
Ġunivers al
ĠProvinci al
Ġtur istas
Ġ damos
Ġmad res
ĠS y
Ġr os
tar ia
u ad
ub ern
Ġt ont
Ġdisc os
in er
aj aja
Ġemp ie
Ġtrat ando
Ġexpres a
ĠcientÃŃf ica
Ġcaracter ÃŃstica
Ġpon iendo
ol it
ĠAmb iente
Ġb aÃ±
Ġpet rÃ³leo
ĠF al
ĠS ierra
ĠQu iz
Ġpasaj eros
Ġlleg ando
Ġev olucion
, ,
zc an
on Ã©s
Ġdib ujo
Ġregist rado
ã Ĥ
uer zo
Ġfort ale
Ġesc apar
Ġded os
Ġtranqu ilo
Ġcre y
atem ala
ĠAm eric
Ġmam Ã¡
Ġb eso
tar on
m entos
Ġrequiere n
Ġcumple aÃ±os
Ġcrit erio
Ġut ilidad
Ġb asa
ĠÃ³r ganos
Ġpla yas
Ġagrad ecer
ĠBlan co
Ġm adr
Ġenem igo
Ġtra er
ĠT ener
ie to
em or
Ġme te
Ġdesp ues
ci mientos
Ġdep art
Ġimprescindi ble
Ġabsol uta
Ġm uÃ±
ĠespecÃŃf ico
Ġc ien
Ġcircul aciÃ³n
Ġocur r
Ġsent imiento
ĠSoci ales
Ġent iendo
Ġdiput ado
Ġbeb idas
ug as
ĠP R
Ġcomp rend
j eros
Ġcuad ros
Ġcomun icaciones
Ġesper amos
Ġmill Ã³n
Ġh alla
ĠNicol Ã¡s
ĠB us
T ra
Ġcomp l
Ġresid uos
habilit aciÃ³n
ĠTor re
Ġefic acia
Ġilum inaciÃ³n
4 2
Ġtermin ado
ĠDef ensa
r ices
Ġhub iese
Ġdispon ibilidad
Ã©t icas
Ġpre te
H ab
Ġcoord inaciÃ³n
av o
Ã³s itos
0 3
ĠHaci enda
Ġw ith
O tro
Ġimpul sar
Ġllam Ã³
Ġa ter
ĠS O
Ġc aj
d ato
Ġexper to
Ġ4 2
ĠRam Ã³n
ĠPe Ã±a
Ġtel a
ig raciÃ³n
is po
Ġg rit
Ġb aÃ±os
ĠMay o
Ġv uestro
Ġconsider an
Ġmin i
ual quier
Ġ6 00
Ġdue Ã±o
ĠReg ional
Ġmant ienen
ĠPan amÃ¡
it aciÃ³n
Ġl adr
ĠH an
ones a
e sig
Ġav iso
Ġj ub
d enes
bo x
Ġr osa
di b
ĠMe s
Ġpriv adas
ĠD I
Ġplant illa
Ġjorn adas
Ġmater ias
Ġrecor rer
d esig
a qu
Ġrepresent an
ĠÃ¡n g
mart ph
Ġing les
eg as
Ġdese os
Ġorient aciÃ³n
ĠjurÃŃ dica
Ġp uro
ĠC N
Ġrecog er
iz ando
ĠEst amos
ct ur
ĠN et
Ġcu ero
iliz ar
Ġa ten
Ġabor dar
uch e
Ġv oces
Ġ enve
Ġh all
Ġeng aÃ±
ĠAutÃ³n oma
Ġdo l
... )
ĠAl lÃŃ
Ġpen et
ĠX IX
Ġproporcion ar
Ġhab ilit
Ġmod os
Ġnov io
re st
Ã¡nd onos
Ġg imnas
Ġmexic ana
Ġmus icales
M uchas
v isiÃ³n
ĠOfici na
Ġm ono
Ġgr is
ĠF ondo
Ġutiliz ados
ĠC Ã³mo
Ġmal os
re am
ol ar
ici ales
Ġalum inio
ĠMur cia
Ġprom et
Ġsal var
Ġ dato
Ġavanz ar
Ġque m
Ġf eria
Ġran go
Ġvic epres
p ort
ĠS r
Ġquedar se
al ista
A ntes
Ġrue das
Ã©r ico
0 2
ĠL abor
Ġar gentina
Ġpres erv
Ġconst antemente
Ġcompre nsiÃ³n
Ġcont est
c omp
Ãºn e
Ġf icciÃ³n
Ġfrut as
Ġso br
Ġrealiz ados
Ġcat Ã¡logo
Ġmet Ã¡l
Ġcontra taciÃ³n
Ġcult ivo
v ie
Ġet er
Ġreci entes
Ġmodif icaciÃ³n
Ġcapaci taciÃ³n
at h
Ġbon ita
abe tes
Ġconf i
6 4
Ġinform ado
g Ã¼e
in idad
Ġur g
B I
Ġconcl usiÃ³n
Ġv uelos
Ġqu ince
Ġrent a
Ġpresid enta
Ġh arÃ¡n
ĠO per
Ġ desig
ĠV ia
7 7
Ġfamos a
Ġcomun icar
ĠOt ros
d ada
Ġac orde
Ġad ver
Ġgest ionar
Ġaprob ado
Ġman ga
Ġind ustriales
ĠSer gio
Ġfortal ecer
ĠNos otros
ig Ã¼
Ãºs ica
d ram
ĠA nte
Ġgarant iza
Ġque so
ing s
Ġhab lan
Ġju ventud
ĠIn stagram
c Ã¡n
Ġmol d
Ġabog ados
Ġasum ir
ific Ã³
Ġmov ilidad
ĠCar ibe
Â ·
Ġanunci ado
Ġayud as
Ġdestac ado
Ġeta pas
ĠdifÃŃ ciles
Ġr inc
IS T
ba o
Ġcompet iciÃ³n
ĠP OR
e sast
8 5
on i
d esast
Ġcor tes
201 5
ĠÃ ĵ
Ġimpresion ante
Ġimpul s
Ġpas t
ist os
Ġver emos
Ġcap tur
Ġmos tra
Ġprob abilidad
x i
Ġproduc tor
ĠForm aciÃ³n
ĠprÃ³x imas
Ġmag ist
Ġident ificaciÃ³n
Ġsujet os
Ġpriv acidad
Ġmir ando
ĠTen emos
Ġneces itar
Ġf oll
he n
Ġbra zo
Ġacost umb
Ġad jud
ĠlÃ³g ica
Ġre in
ĠseÃ± ales
ĠF un
ĠSem ana
Ġm ach
Ġevalu ar
am ental
Ġperman ecer
Ġexpan siÃ³n
Ġm ale
Ġpat io
ĠSegun da
Ġespeci alizada
Ã³r ica
Ġdel inc
Ġestu vieron
Ġimag inar
Ġdeport iva
Ġmod alidad
at ional
ĠV as
ĠTor res
ĠProv incia
Ġcar ro
Ġcomput adora
Ġgener aciones
Ġap ost
ĠTen go
Ġsal d
Ġvirt ud
Ġconoce n
Ġdi os
ĠE le
So bre
Ġcre ando
ĠFiscal ÃŃa
ild e
w ard
Ġcart el
Ġdep ortes
Ġcampe onato
re y
Ġap orte
t y
Ġpro dujo
Ġfuncion ario
Ġadolesc ente
Ġhuev os
ĠBlan ca
ro v
Ġpubl icaciones
or ca
Ġam able
ut r
ĠA pl
um o
Ġsu yo
Ġhtt ps
ez as
Ġv inos
Ġasoci aciones
ER O
tes is
Ġabr iÃ³
Ġver lo
Ġcuid ar
Ġprim a
Ġfal lo
r m
ĠW al
ĠP apa
201 6
O tra
Ġbar ato
ĠPe n
Ġap artamento
Ġre formas
Ġayud e
Ġindic ado
Ġtre inta
Ġ desast
Ġem baj
Ġpant al
ĠW ashington
Ġcorre g
Ġ25 0
ĠGob ern
Ġ dram
ÃŃm etros
M E
O b
ir iÃ³
Ġquedar on
Ġcub ierta
Ġman dar
ĠR ico
TI V
Ġreca ud
ib lia
ĠG lo
to p
Ġc ÃŃr
ĠInt el
ĠV ie
Ġm useo
ĠRob erto
Ġpie dras
Ġenem igos
Ġacudi r
w ood
Ġj e
Ġpl at
ar os
Ġno tar
Ġahor rar
Ġconsigu iÃ³
u ge
Ġn ucle
Ġ12 0
Ġnie ve
ĠbÃ¡s ica
Ġf ans
ĠclÃŃn ica
ĠL et
Ġlabor atorio
Ġig uales
Ġmaravillos o
ĠespaÃ±ol as
re e
ĠInd ep
o te
Ġesc enas
Ġbe ndi
M an
s quina
e squina
4 3
ĠEsp ero
Ġrepet ir
Ġcu ant
Ġb acter
Ġrecomend amos
Ġesc as
G U
Ġg oz
Ġmuest ras
ĠIn genierÃŃa
ĠperiÃ³ dico
AR T
on ce
Ġpropiet ario
Ġpriv ados
Ġtra ma
Ġm ore
Ġre nunci
ĠtelÃ©f onos
D el
Ġmecan ismo
u u
Ġpon emos
C reo
ĠG ol
gu Ã©
ÃŃc ola
Ġacep t
Ġdestac an
Ġcomb atir
Ġreg la
ĠE X
Ġmejor as
Ġher ed
ÃŃf ica
ĠhÃ¡b itos
Ġpract icar
Ġbol as
Ġfuer an
ĠPa ul
Ġpod eres
gar se
Ġso le
ĠC ur
ĠReg lamento
Ġcerc ana
Ġviv iendo
Ġtrat ado
ĠCo oper
ĠS imp
Ġs how
Ġsa ga
me nd
Ġver se
ĠÃ³r gano
ĠEx per
Ġpudi eron
Ġpermit an
ĠR ica
Ġpot ente
ĠSex o
Ġreserv as
ĠAcad emia
ĠCan adÃ¡
Ġdesc ripciÃ³n
c at
ĠC uer
Ġpol ic
er ada
i h
ĠlÃŃqu ido
Ġpar Ã¡m
ĠcrÃ©di tos
Ġdirig entes
Ġconsum idor
Ġdeb o
M O
Ġrec l
ER A
m erc
ĠAl im
Ġtransmit ir
Ġsosten ible
Ġtonel adas
ĠQ UE
Ġmin erales
ĠB os
Ġsitu ada
ĠespecÃŃf icos
ĠÃģ frica
c am
Ġrest ric
Ġdice s
Ġdipl om
Ġregal os
O r
Ġdich as
Ġ esquina
ge no
Ġac Ã¡
Ġapar iencia
ĠVic ente
P U
Ġsob res
Ã¡m ico
ĠS ar
Ġverde s
Ġdesc ubre
AD A
ber g
Ġre tos
Ġbas ura
Ġno ctur
r illa
ĠMedi a
as iÃ³n
Ġor al
ĠfÃ³rm ula
Ġmont aje
f it
N uestro
Ġal tamente
Ġf ach
Ġsal as
Ġconci ertos
Ġfrance sa
ĠindÃŃge nas
ĠT an
Ġdin Ã¡mica
v ias
Ġvac ÃŃo
at u
E A
Ġcontribu ir
Ġl uc
Ġ deg
ĠMerc ado
Ġpendi entes
Ġpermit iÃ³
Ġf ruto
ala x
Ġconform idad
ĠRos ario
Ġdeci di
Ġprim aria
Ġdist rito
ĠLe s
Ġhor arios
Ġcab all
Ġquis iera
Ġcon ducir
ĠfÃ¡ brica
Ġesper an
Ġas al
ĠA ragÃ³n
Ġarro z
ĠÃŃ nt
ĠOn line
Ġdistint a
ad era
Ġrevis ar
Ġexpl icaciÃ³n
Ġinterp retar
Ġcontra tar
ug ada
ĠT rat
Ġesc ult
Ġt orm
ĠAut or
Ġve ÃŃa
Ġabra zo
Ġadquis iciÃ³n
Ġg rÃ¡fico
Ġderro ta
Ġt asas
Ġexcel entes
ar iales
uj os
P D
Ġb y
ner os
ĠM uchos
w ay
Ġcom e
Ġmal as
aliz adas
ell Ã³n
ĠV ida
ĠGu atemala
ĠYo u
Ġre iter
Ġal iv
Ġimag inaciÃ³n
Ġh Ã©roe
ĠN unca
6 8
ĠF eria
N O
m i
Ġobt uvo
Ġtransp ar
Ġllam an
Ġidi omas
ĠG rat
N A
ap or
Ġv ag
ĠacadÃ©m ico
u k
v illa
Ġlimp iar
Ġsir ven
Ġdo y
que n
Ġlimp io
Ġprest aciÃ³n
Ġauton omÃŃa
Ġdete ner
Ġdom Ã©st
Ġdeten ido
Ġpo eta
Ã³ cra
z co
ĠG as
Ġdiscipl ina
ĠEmp resa
Ġmez cl
Ġsatisf acer
sp ens
Ġalim ento
T V
ĠPar lamento
c Ã³mo
ent ada
Ġa nci
Ġform al
Ġeurope a
ĠG an
Ġcolum na
Ġest ilos
Ġr ast
ĠGal icia
Ġdiput ados
Ġpar ar
Ġvig or
Ġacondi cionado
Ġex ten
Ġpropiet arios
ra ban
ĠseÃ±al ado
Ġemo ciÃ³n
Ġrum bo
rue ba
Ġb od
Ġdiv ul
le do
P er
ĠSebast iÃ¡n
S I
ÃŃ nci
ĠaÃ±ad iÃ³
Ġent ero
Ġconven iente
Ġfemen ino
Ġpreci siÃ³n
rip ciones
rib ir
ĠR eci
m Ã³
ig encia
4 1
Ġse s
ac ha
Ġle j
Ġans iedad
Ġejecut ivo
Ġcon lle
ol la
Ġdisf ra
ĠEj Ã©rcito
ise s
ĠJ ack
Ġt ard
Ġestableci mientos
Ã©n ez
Ġaccid entes
Ġmas aje
Ġhab ilidad
le no
Ġprovinci al
Ġgust os
Ġcab al
Ġh ol
nte n
Ġest amp
ĠB on
ĠA re
Ġasoci ados
c la
Ġav is
Ġin gen
n aciÃ³n
Ġens ay
s act
Ġre iv
ĠÃºt iles
Ġsal sa
Ġba ile
Ġprovinci as
Fin almente
udi ciales
Ġam antes
Ġescen arios
ĠJ orn
Ġap et
Ġp ur
Ġinte nso
iller mo
Ġinsp iraciÃ³n
Ġfuncion ar
Ġre Ãºne
Ġplan ificaciÃ³n
e y
ĠG uer
ol uciones
Ġnaveg aciÃ³n
Ġtrabaj ado
se Ã±
ut ados
ĠCan arias
ÃŃn as
Ġa mo
c ara
Ġdet erior
Ġme sas
ĠC U
c olo
and ra
Ġdefinit ivamente
Ġorgul los
ge ner
Ġrecibe n
ed ral
Ġmexic anos
Ġpro ceder
Ġcerve za
ĠEsp ÃŃritu
ĠG r
ĠFin anci
Ġcre ciente
Ġsust ancias
Ġhum edad
Ġl istas
ĠP Ã¡g
Ġr aro
Ġcay Ã³
uci r
Ġtemp rano
Ã¡n ea
Ġh ilo
Ġporta voz
ĠArt ÃŃculo
Ġtransf erencia
M uy
Ġo lor
ĠA ustral
Ġsol idaridad
Ġautom at
Ġro ja
Ġg ubern
Ġpreci so
Ġparticip aron
Ġlimp ia
Ġr ica
ĠCor por
Ġbicic leta
ig as
n ada
Ġlidera zgo
Ġcerem onia
ĠL una
ĠC alle
end ido
ro car
Ġband era
ĠNo v
ine te
ĠLeg isl
ĠAct ualmente
Ġin icia
Ġsig a
Ġest acion
Ġo ÃŃdo
ÃŃs imas
ĠPort ugal
ĠAn un
Ġr onda
Ġcos tes
s ung
ĠMar cel
Ġhab ia
I CI
Ġprob ado
Ġsufr ido
Ġseleccion ar
Ġar bit
Ġmedi ados
Ġj oy
Ġhabl Ã³
Ġenfrent ar
Ġescrit a
ĠMore no
ec on
Ġc ade
Ġac om
ĠÃºn icos
Ġ4 7
Ġestadounide nses
Ġrespondi Ã³
ĠV el
R AN
Ġab unda
ĠMart in
Ġprest aciones
Ġmaqu inaria
Ġepiso dio
Ġoblig ado
ÃŃ ces
uy ente
Ġref erencias
ĠM ich
on c
ĠfÃŃs icas
ĠsÃº per
s qu
Ġaficion ados
Ġcr imen
Ġacep taciÃ³n
Qu iÃ©n
ĠcÃ³m oda
Est oy
Ġexist ir
ot s
ĠAm or
ĠPat r
Ġregres ar
Ġexclus ivo
az z
ci r
Ġnaveg ador
Ġcomenz aron
ot h
Ġro bo
al os
Ġcir ugÃŃa
ul ados
Ð »
t u
Ġf ibra
Ġfavor itos
Ġautom Ã¡ticamente
Ġtera p
ĠCon c
Ġmarc ado
Ġmedi r
ĠIs abel
Ġ[ ...]
Ġinc umpl
ĠCrist ina
Ġpat r
Ġinc omp
ar c
Ġvalor aciÃ³n
Ġhogar e
Ġintegr ado
Ġo dio
Ġestruc tur
Ġcontinu idad
Ġra za
Ġmot ores
ĠbÃ¡s icas
Ġtr Ã¡n
Ġcre ada
Ġbal Ã³n
Ġapar ato
Ġqu iso
Ġsub e
Ġdo ctr
di s
at ch
Ġayud arÃ¡
iz os
Ġconc ret
Ġ4 3
ĠInt erior
6 7
Ġobten ido
ĠCont ra
j ado
Ġser ÃŃan
Ġpos tura
Ġconoc emos
Ġin y
Ġant ic
rit as
io t
Ġelev ado
ici dio
Ġf emin
all er
ĠAp rende
Ġve ndi
Ġab st
Ġas omb
Ġ 01
Ġt Ã¡ct
ĠD om
ra je
ĠT am
ĠCast illo
Ġcast ellano
Ġmencion ar
Ġpodr ÃŃamos
Ġmat ar
Ġpag ina
d ucha
Ġmin eral
Ġviv ido
Ġpo quito
Ġdese as
Ġsufici entes
ĠO scar
Ġsol id
Ġro t
Ġcom idas
ci s
ĠÃ³r denes
Ġciv iles
ĠO f
c ons
be n
Ġcu bre
las h
Ġplante a
Ġor din
ĠMor ales
ce nd
enc o
l ara
on y
Ġalc anza
ĠjurÃŃ dico
Ġpanor ama
Ġingres ar
Ġcolomb iano
ent amente
Ġprev ent
ĠN or
ĠVer d
ĠpÃ©rd idas
ĠÃ© stas
Ġdesp ertar
Ġ9 5
Ġsent ÃŃa
Ġpre ndas
ĠJ ue
Ġindependi entes
Ġdescub ierto
ĠP in
Ġre mit
Ġme tas
ro g
Ġp atro
it ivo
Ġneces ito
Ġmodif icaciones
Ġest aciones
Ġvigil ancia
Ġport Ã¡til
ide os
Ġ4 4
Ġcrist ianos
ĠPr incip
Ġnegoci aciÃ³n
Ġhab ido
ut ube
ex o
Ġap p
ip to
O T
Ġfavor ito
ap o
ĠP ens
ĠclÃ¡s icos
Ġcol a
Ġco ger
! ,
Ġmaqu illa
V e
w ork
d id
Ġcob rar
ĠP RI
ĠsÃŃmbol o
Ġdep endencia
Ġ ducha
Ġasesin ato
Ġeduc ativos
Ġaconte cimientos
Ġdirig ir
ĠO tra
, ...
Ġpubl ica
Ġc ajas
Ġdec reto
ĠC A
ha el
Ġado ptar
Ġpar eciÃ³
ĠU t
O s
Ġguitar ra
Ġbien venida
Ġo toÃ±o
Ġsal ario
il lar
ĠR et
Ġfom entar
Ġb ille
od ÃŃa
Ġve a
ern idad
ur re
Ġgr ue
Ġelect ro
Ġcombust ible
or dar
ad uras
uy eron
us as
ing Ã¼
ĠG ust
ĠMe n
if ique
Ġg ato
Ġdisp osiciones
un idad
Ġpreci sa
Ġargum ento
ĠHab ana
ib lemente
Ġada p
uer ta
ab ra
s v
Ġest ando
ĠEurope o
Ġllev ando
Ġsol dados
ale ncia
Ġpis os
ĠDep ortes
Ġdescuent os
dad e
ĠAst urias
G u
Ġem bl
Ġintro duci
ĠFre nte
ĠE g
Ġlar gas
s ac
Ġs illa
Ġprov ocar
ar gar
e sact
Ġfel ices
Ġdesp ed
F i
Ġregist ros
Ġcaracter iza
cul ar
rop olit
Ġv ib
Ġconduc e
Ġsig nos
ant ar
Ġpar cial
9 8
Ġempres ario
Ġcorpor al
Ġindi spens
Ġor aciÃ³n
ĠespecÃŃf ica
d esact
ĠM A
Ġestre no
Ġintent ando
Ġmanej ar
Ġdi abetes
Ġgust Ã³
Ġpar ad
ĠM ater
ĠW orld
Ġsent irse
Ġj a
Ġreg ulaciÃ³n
Ġpudi eran
Ġr icos
Ġ4 6
Ġmadr ugada
ĠP A
Ġac u
Ġsur ge
Ġllev aron
Ġhogare s
j an
ĠD et
Ġlar gos
Ġfisc ales
d ero
Ġcampe s
guar dia
p iente
Ġmin im
Ġgr ie
ol as
Ġcuent os
Ġvuel tas
Ġm ier
o f
Ġrealiz aron
Ġded icar
Ġconstru ido
Ġs martph
Ġdormit orios
on ar
Ġcont arÃ¡
Ġenvi ado
Ġsem illas
Ġese nciales
ur t
Ġfres co
uenc a
Ġav al
Ġsig o
ĠespecÃŃf icas
G T
ĠtrÃ¡n sito
g in
ĠIg n
Ġdesc enso
ĠL og
ĠLib ro
ĠC uenta
Ġcons entimiento
Ġsel lo
Ġpersonal mente
Ġcur ioso
Ġconviv encia
or di
cede s
sc a
Ġileg al
ri le
Ġs c
Ġcab allo
Ġexpres ar
ent almente
Ġcuadr ados
Ġcal ent
Ġimpul so
Ġher idas
EN TE
Ġenam or
ÃŃ b
Ġdetermin ados
Ġsu mar
ĠJ ames
Ġcurios idad
Ġa tend
Ġprost itu
Ġdev olver
el ar
ĠMedi cina
Ġconst a
is dic
D i
Ġkil os
u gu
Ġtor re
ĠA Ã±o
aci Ãĥ
Ġne um
Ã¡ vez
j erÃŃa
Ġfel ici
era nte
Ġexcel encia
Ġcu ota
Ġirreg ular
Ġcamis eta
Ġdej aron
Ġa gra
A nte
ec k
u vieron
Ġtem or
ĠS omos
Ġ desact
od Ã³n
Ġfracas o
Ġsufici entemente
or ales
Ġaux il
Ġt ip
Ġrec ol
Ġba ut
ĠIs la
Ġg afas
Ġsub ray
Ġsusp ensiÃ³n
Ġequival ente
Ġfu imos
Ġllam ados
Ġapar eciÃ³
Ġpas ta
Ġdi ga
id ado
ot ras
Ġtur ÃŃstico
Ġveci no
Ġcreci endo
ĠseÃ±al ar
Ã ¶
Ġprov oca
Ġre ino
Ġvie ja
ĠI S
Ġre baj
ĠĠ ĠĠ
ĠM Ãºsica
Ġdispon er
B ar
Ġpon go
Ġb iblioteca
Ġtemp lo
Ġar co
Ġelim inaciÃ³n
Ġcont rase
b ur
ĠP ep
Ġrespal do
Ġsolucion ar
Ġlig a
el le
% )
ĠC ort
Ãºm ero
Ġ199 9
ub r
ev it
Ã©c ord
Ġ: )
Ġsu av
Ġpint ar
ĠProfes ional
Ġcontam inaciÃ³n
ĠT it
ĠÃ¡ cido
Ġtrib ut
re sp
is s
dade s
Ġdesapar eci
Ġdet erm
Ġse co
Ġtra mit
or cio
Ġf us
Ã¡ menes
Ġpr Ã³
Ġrut ina
Ġexpl icado
Ġt Ã©
Ġconfirm Ã³
ut i
ĠM ana
Ġtra mo
E E
N uestra
n eg
Ġelabor ado
ĠD ol
ĠP ap
Ġfot Ã³graf
Ġ4 9
Ġincl usiÃ³n
Ġfrut os
Ġrelacion ada
d up
y l
Ġestableci dos
Ġre ina
ur Ã³
Ġamig as
Ġrelev ante
c m
rim on
Ġm ÃŃo
Ġant eced
ĠM ira
ĠM ej
or ra
Ġtuv imos
ĠSe nado
Ġt onos
IN A
and al
Ġresp ira
ĠGu illermo
Ġco bre
Ġcontin ente
ec ÃŃan
Ġreco ge
Ã¡ z
Ġque do
og rÃ¡fico
Ġcolect iva
ĠAl ta
ĠMar keting
pe ta
T C
Ġpa ga
Ġn Âº
ĠAlf onso
ĠaÃ±ad ido
ĠCap ital
Ġt ribunal
Ġrefle ja
Ġinc ent
Ġfi ja
ÃŃ menes
l id
Ġrenov aciÃ³n
gar on
S t
Ġtrasl ado
Ã¡ndo la
ĠV ictoria
Q uer
s em
ĠMo del
Ġrecha zo
Ġcam ar
ĠCom erci
Ġh isp
ĠA tenciÃ³n
Ġinv ita
Ġlist ado
Ġcaus ar
Ġcart era
Ġrep ubl
j unto
ĠW e
Ġpens aba
ier tas
ĠO tro
ion ados
Ġsal to
ĠAl icante
ĠGuar dia
ĠLib re
u fici
Ġasesor amiento
ib re
Ġn aciones
Ġmont o
Ġres ide
Ġps ico
ĠL ar
Ġespeci alizado
Ġ- -
Ġpel ic
Ġpl aca
ĠSalud os
Ġex tend
Ġrel atos
Ġcost umbre
Ġab ord
Ġcre Ã³
ĠDist rito
ec omun
Ø §
Ġinform ar
Ġcre emos
Ġmold e
ab o
Ġescog er
ĠD est
ĠcrÃŃt ico
Ġparticular mente
Ġviv imos
Ġverd uras
ĠMar co
ven ido
ĠWill iam
Ġhaber se
Ġ das
Ġra ÃŃces
enc er
ĠÃ¡mb itos
ĠBil bao
Ġbrin da
ĠEmp resas
ĠG ir
ĠN eces
Ġl una
Ġofreci endo
Ġdece p
Ġcar re
Ġcon gel
Ġgolpe s
ĠO ctubre
ĠAl to
aj ara
m l
Ġpro greso
Ġcelebrar Ã¡
Ġp est
Ġpolic ÃŃas
ĠRu iz
Ġtransp arencia
Ġneg ativo
Ġdest inos
Ġsent idos
Ġide ales
Ġpul s
Ġb rut
Ġsir v
Ġle siÃ³n
Ġper cepciÃ³n
Ġconduc ciÃ³n
ĠAs ia
Ġelect ricidad
Ġamena zas
Ġan g
Ġbar atos
Ġvest idos
I nc
ĠRa Ãºl
Ġec u
ÃŃ so
Ġrep roducciÃ³n
Ġech ar
ĠpÃ¡r ra
n ot
Ġexcep cional
ros t
Ġdig nidad
Ġ 00
Ġa qu
Ġhabl ado
Ġap la
F A
Ġdelant ero
Ġenc anto
ce da
ĠD ES
ĠÃ¡ rabe
ere n
Ten emos
Ġpar ada
ĠC iencia
Ġdenomin ado
ue na
g ico
Ġ4 1
Ġof ens
Ġmaquilla je
u te
k in
Ġabandon ar
Ġrepres entar
G B
Ġ ego
in cl
ĠSant ander
alu aciÃ³n
Ġreiv indic
ĠReg iÃ³n
Ġin oc
Ġfirm ado
Ġsost uvo
Ġorgul lo
te ga
Ġneg ativa
ĠPr iv
Ġpar lament
Ġprove edor
Ġ dada
Ã³m icas
Ġfrec uente
C C
ĠMa ur
ĠLatino amÃ©rica
Ġgarant ÃŃas
Ġf rÃŃa
ĠF r
Ġlanz Ã³
Ġconvers aciones
Ġinc orp
E so
Ġsuminist ro
ra miento
cion a
Ġfact ura
Ġproduct ividad
ros a
Ġv iva
S omos
ĠTecn ologÃŃa
Ġap ell
end as
Ġincorpor aciÃ³n
Ġsec retar
ĠC H
z adas
Ġoc ta
ĠL E
Ġparticip ado
u Ã±a
Ġvay an
Ġpan el
Ġ8 5
. Â»
Ġdetermin ada
uer da
Ġ ende
ĠRel aciones
Ġmanifest aciones
Ġceleb rado
Ġof icio
Ġcar as
ĠA par
Ġposib lemente
Ġsegu irÃ¡
Ġcin emat
Ġaut ora
Ġrev istas
Ġment ir
Ġmencion ado
Ġorganiz ada
T S
ĠProduc tos
Ġcu Ã¡ndo
Ġpre ced
ï¿½ ï¿½
is m
Ġtermin al
se a
ĠAma zon
Ġconsider aciÃ³n
Ġsepar aciÃ³n
ÃŃs imos
rat ivo
Ġparticip an
ĠCh Ã¡vez
ĠAc ciÃ³n
Ġproc lam
ĠenseÃ± ar
Ġh ielo
ĠUsu ario
Ġpesc a
uj a
terrÃ¡n eo
P O
Si empre
ĠP ER
Ġem isiÃ³n
Ġvent anas
201 4
ĠTran s
re se
ent ario
ÃŃe s
Ġinf o
.. ...
il er
Ġa ves
Ġpaci encia
g et
Ġemple ado
Ġat re
Ġfut uros
Ġfal l
Ġmil ag
Ġsim ult
ĠB log
pe ns
ĠMic hael
ĠEx cel
Ġfr ust
Ġbomb a
Ġin mobili
Ġt erapia
Ġcan cha
Ġprecios o
et h
Ġsiente n
ĠC in
rÃ¡ ct
Ġmon stru
Ġpap eles
Ġten ÃŃamos
Ġap rende
ĠEspeci al
P rim
Ġgan ancias
Ġesp oso
ci nas
ĠHu go
Ġserv idores
Ġargum entos
Ġgal ard
L le
Ġneg ros
Ġlanz ado
Ġej er
Ġpar ro
om end
Ġresult Ã³
Ġten Ã©is
Ġfir mas
ĠSit io
Ġre form
Ġexist ente
Ġr Ã©cord
id umbre
ĠCol or
ĠP sic
Ġap unta
gr ad
rat iva
ĠL ocal
Ġacep ta
ra c
um br
ĠK ar
iel d
Ġlab ores
ĠhistÃ³r icos
Ġc iencias
ĠcuÃ¡ nto
Ġper tin
ĠP ost
ĠSec retario
ĠG afas
Ten go
Ġllegar Ã¡
S oy
ur b
ĠRev oluciÃ³n
Ġtr ist
Ġsegu imos
Ġdest inado
Ã³l icos
ĠON U
Ġnaran ja
ĠO ne
Ġsens ibilidad
d uelo
tor nos
Ġlater al
Ġenve j
Ġutiliz ada
ĠDeb e
Ġamar illo
p al
Ġsimp les
Ġinf lam
iv idades
ĠEn f
Ġ8 00
ĠB lo
at i
at Ã³
Ġsufr iÃ³
n ia
ĠAl onso
Ġvid rio
p res
ĠNo viembre
Ġinfl aciÃ³n
ĠHum an
Ġlit ros
Ġapreci ar
ĠRe n
Ġart ÃŃstica
H emos
B L
Ġperf ecciÃ³n
Ġ199 8
Ġent rÃ³
ĠEl los
201 3
Ġcomp rende
Ġex cur
ĠVerd e
Ġon ce
ĠT res
Ġviaj eros
Ġsec undaria
m y
Ġhac ÃŃan
Ġincrem entar
Ġesp ejo
Ġev ent
Ġmost rado
). -
uel ve
AR IO
Ġpel ota
Ġpromo v
ĠE p
Ã©s ar
Ġten gamos
ĠZ ona
Ġ duelo
Ġo cio
Ġtem Ã¡tica
Ġh ect
Ġtrat aba
Ġad emas
Ġt rit
Ġafect an
ĠF o
Ġenc uesta
Ġvari ables
ĠMad uro
Ġpesc ado
Ġ ....
ĠS ER
Ġaudio vis
Ġsuper viv
Ġhay as
ĠN a
Ġcatal Ã¡n
Ġavent uras
Ġcontro les
Ġarras t
ier tos
ĠmÃºs icos
ell i
ĠD in
ĠGabri el
Ġm isterio
Ġinf antiles
Ġdest rucciÃ³n
E X
Ġsub ida
Ġf ruta
Ġlum inos
Ġconoz co
Ġdi arios
Ġinvestig ar
ad i
Ġcon ver
Ġal erta
Ġcub ano
ĠC urso
Ġabier tas
ĠHe n
Ġcarb ono
Ġneces ariamente
ĠFl ores
Ġtarif as
ĠdÃ© fici
Ġcu antas
Ð º
ĠDiv isiÃ³n
Est Ã¡
ĠclÃ¡s ica
Ġlanz ar
Ġmens ual
ÃŃnci pe
. :
Ġresult ar
Ġch ino
ĠW hat
ĠG il
In icio
Ġincon ven
Ġsacr if
Ġprior idad
e h
Ġo este
ect ores
Ġpat rÃ³n
Ġhu Ã©sp
Ġsu fre
Ġcr on
Ġus os
Ġch ar
____ ____
ĠM y
ĠPe nal
Ġafront ar
ĠG ro
Ġbrit Ã¡nico
Ġconsult as
Ġcont ienen
ec emos
Ġpul gadas
6 9
Ġin al
ere sa
Ġmuer e
Ġtra je
Ġreduci do
Ġcons igo
se x
h tt
Ġconect ar
Ġcl ick
m ica
ad er
Ġdesig ual
ĠF a
Ġl icenci
ut h
Ġverdad eramente
Ġ6 4
Ġpol icial
ĠL O
B O
ĠN ar
Ġis las
Ġcu yas
Ġfemen ina
Ġman z
Ġsec retos
Ġarr ies
n io
Ġrecord Ã³
8 4
Ġdetect ar
Ġespeci alizados
A nt
Ġdeport ivas
AD OR
ortun adamente
ĠC ine
Ġprote ÃŃnas
â Ĩ
Ġrecor r
Ġdime nsiÃ³n
Ġencuent re
n gan
osit or
! .
Ġam an
ĠRe serv
re za
Ġdesp ert
Ġh arÃŃa
Ġobserv a
w in
Ġvig encia
Ġinm igrantes
Ġclar as
Ġar ter
ĠA le
Ġ dup
Ġc ore
u les
ĠF Ãºtbol
Ġtit ulado
Ġtal la
ĠVÃŃ ctor
Ġcul min
ĠC ity
ĠÃģng eles
nd rome
le tos
Ġfarm ac
Ġsue na
Ġblan cos
am ar
Ġson idos
Ġa gencias
Ġpro cede
nd e
Ġsab ido
UL O
Ġtuv iera
Ġr uso
e squ
ĠC alidad
Ġdisf ruta
ĠSe guro
Ã¡nt ica
ĠFin almente
Ġdesaf ÃŃo
ĠJ efe
Ġjue ces
ĠOr g
at Ã³n
ĠF oro
edi os
ĠOr iente
z e
M o
ÃŃt icas
Ġrelev antes
re al
Ġacab Ã³
ID A
ĠNav arra
Ã¡nd ome
ĠprÃ¡ct ico
Ġenerg Ã©tica
ĠIm per
B ien
ĠparÃ¡m etros
Ġsim b
S an
Ġlog ro
Ġelabor ar
Ġdict adura
Ġapar eci
ĠI ns
Ġcon o
8 9
ĠLe on
Ġindic an
Ġtrans iciÃ³n
Ġin dem
Ġprot esta
Ġsal ga
ĠIgn acio
Ġp ira
r icos
ĠC ert
Ġcontemp l
ĠL AS
Ġp istas
iz as
Ġc ens
Ġm ob
ur ia
Ġfoto g
Ġdismin uciÃ³n
ĠGrat is
d ens
Ġso Ã±
Ġpres idencial
ad erÃŃa
on ado
ĠT ot
ĠQu int
Ġconstit uyen
e sv
u is
Ġdivert ida
Ġel ige
ĠT anto
ĠCampe onato
Ġpres idencia
Ġlleg amos
ĠC orea
Ġcolect ivos
ritur adora
Ġrespons abilidades
ÃŃs ica
Ġdeci s
er mo
che s
Ġcoleg ios
Ġmont aÃ±as
Ġinter v
Ġprecios a
Ã¡st icos
Ġinter iores
ion istas
Ġch arla
Ġfavor ita
Ġsuf ren
Ġinqu iet
e amente
Ġpel ea
ric h
ĠRob ert
Ġasegur ado
ĠAz ul
Ġlig eramente
Ġblog s
ĠIndustr ia
Ġceleb rÃ³
Ġtom an
Ġejecut ar
Ġtranquil a
f ia
Ġdef ecto
Ġinteg rar
T M
Ġdesarroll ando
gun a
Ġlig ero
Ġqu into
Ġin esp
ĠestÃ¡nd ares
Ġand ar
ĠS ig
Ġsimp l
Ġc ep
Ġsing ular
ĠPor no
Ġded ica
Ġec os
Ñ ĥ
ĠIn m
ÃŃ das
Ġpec ado
Ġcom is
Ġev ide
Ġmand ato
Ġsocial ista
Ġclar idad
Ġedad e
il as
os tar
Publ icado
Ġedade s
ribun ales
ĠAl c
Ġmetodo logÃŃa
ĠprÃ©st amo
Ġgal erÃŃa
Ġpec ul
Ġguar da
Ġtestim onio
Ġantigu as
Ġac ert
Ġdep ender
ĠW i
ic ular
Ġextra Ã±a
Ġconoci das
d edo
Ġescrit orio
unt amente
ĠRes oluciÃ³n
Ġfuncion an
Ġcump len
er ancia
Ġhip Ã³
Ġencont rÃ©
ol vid
ĠJ ur
ĠXX I
Ġper pet
Ġte sis
Ġf lam
ci ende
at an
der as
ĠAustral ia
oll y
ĠF ab
Ġch e
Ġc lan
ĠFran co
Ġabier tos
d ale
Ġcoincid e
form aciÃ³n
Ġpreci p
ĠR ock
Ġv aria
Ġsig no
Ġmanifest aciÃ³n
Ġafect ar
uc ciÃ³n
Ġesc ond
Ġocur rir
ĠCan al
ĠR aj
Ġmarc ador
Ġrecog ida
8 7
Ġgrav edad
ur rido
Ġven ÃŃa
Ġparticip Ã³
Ġgener an
Ġmar car
ge na
Ġagr icultura
ĠV amos
ĠB io
ĠS ept
d ores
ara gua
Ã¡ f
i ando
ĠsÃ© pt
que sta
g ia
ĠEnerg ÃŃa
Ġhab ituales
J A
Ġinstal ado
Â ±
ecomun icaciones
r in
Ġint roducciÃ³n
Ġco pa
Ġvot ar
Ġbol sas
igÃ¼ edad
Ġdirig ente
Ġsolicit udes
Ġsens aciones
ĠV i
Ġab uso
Ġm ud
ĠR em
ĠAnun cios
ĠZap atos
Ġk g
Ġk e
Ġl ento
g ro
Ġfund aciÃ³n
Ġal ine
Ġa ci
Ġvas o
Ġv ivos
Ġref res
di ciones
Ġvuel ven
Ġexcep to
Ġexperim entar
Ġbar rios
Ġg rem
Ġley enda
Ġresid entes
ĠJ ard
endo za
Ġliber aciÃ³n
Ġre habilitaciÃ³n
Ġinter acciÃ³n
Ġdisc ul
Ġat ribu
Ġautob Ãºs
ĠOb ama
Ġm ueve
, .
Ġca z
Ġ ore
Ġens al
T RA
ĠSam sung
Ġalcanz ado
ĠDomin icana
ĠU R
ĠMad re
ĠM AR
Ġimplem entar
Ġacum ul
Ġescrit os
Ġpro cur
ns ula
Ġf ama
Ġest ima
di ales
ĠAlgun as
201 2
u ga
Ġcas co
ĠC L
Ġjur ado
d esv
Ġin und
ul s
Ġenorme s
Ġllu vias
C N
Ġproces amiento
Ġdep Ã³sito
ĠU b
Ġaprend ido
Ġ dedo
Ġimp oner
ĠfÃ¡ ciles
ĠC oci
Ġadv irt
Ġtel e
Ġunif orme
Ġfamos os
ĠCh ica
uel va
tra ciÃ³n
Ġal ianza
u i
vert ir
ĠM esa
ĠPrim ero
Ġvideoj uegos
ĠT rad
Ġpas aba
Ġmaravillos a
to ck
an i
Ġte at
id urÃŃa
sf era
8 6
Ġmand atario
A A
3 00
ĠAgu a
Ġan uales
ntes is
Ġresp ond
Ġlimit ado
ĠM all
orde n
Ġ dens
on ga
Ġrel ativamente
Ġinter nos
ĠJa ime
ĠLu z
Ġcult uras
Ġm ÃŃa
f ect
Ġdisminu ir
Ġcar gar
h um
ill ones
Ġsubs id
ac ÃŃfico
Ġdeclar ado
Ġger ente
Ġrep orta
Ġconf erencias
ĠU l
Ġdetermin adas
ĠUnivers itario
Ġregist rar
f ol
Ġem is
Ġcost umbres
Ġmultip lic
Ġdiver siÃ³n
Ġsolici ta
Ġx xx
ĠS igue
ĠespecÃŃf icamente
Ġs era
Ġcl ubes
Ġtej idos
ĠR ich
Ġjur isdic
Ġse min
il itar
L AN
Ġgest o
itud e
ĠT ab
Ġameric ano
Ġob ses
if i
Ġhar ina
Ġcapit Ã¡n
ĠMar cos
qu ero
Ġtras cend
Ġincl us
Ã¡r s
V D
Ġint u
Ġv ieron
Ġaf uera
nci ana
ĠCam po
Ġpudi endo
ĠMas ter
ub o
Ġlav ado
âĢ ĺ
Ġ desv
Ġme nci
Ġre di
Ġsorte o
ad eros
Ġpl ac
Ġhici mos
Ġpol lo
Ġgastron omÃŃa
Ġp Ã¡
Ġestad ÃŃsticas
Ġac ar
Ġ did
n vid
Ġoblig a
ĠW h
Ġv s
ĠnÃºc leo
ĠC AR
Ġreemp la
Ġex quis
Ġresta urar
Ġvari able
Ġrep ente
Ġindi g
Ġfac ebook
ac ruz
Ġdep resiÃ³n
ĠL ED
Ġcuar tos
Ġqu ir
Ġcompon ente
ĠCÃ¡ diz
Ġin genierÃŃa
anc ÃŃas
re tas
e nvid
Ġweb s
S ab
Ġver te
ĠC Ã©sar
ĠN ada
Ġter rible
Ġincorpor ar
Ġcomb inar
Ġju venil
ĠUS B
Ġconcl usiones
Ġbeb er
Ġampl iaciÃ³n
Ġline a
Ġpose siÃ³n
Ġtestig os
Ġvuel va
Ġhect Ã¡
Por que
ortun a
Ġs ana
Ġvalor ar
gu ida
ic ando
ĠdÃ©fici t
Ġver Ã¡
ĠEmp leo
ĠIn nov
Ġfas cin
Ã¡z quez
Ġestuv iera
ĠB iblia
ĠSup remo
ĠDip utaciÃ³n
Ġobt iene
Ġtub o
Ġfinanci eras
Ġb ella
Ġfrec uentes
Ġh ard
Ġconsum ir
ĠL ev
ĠAd ri
Ġmal tra
Ġhacer le
anda nte
ĠH emos
Ġcin c
Ġin evit
Ġens ayo
Ġv apor
Ġbr illo
Ġgrab aciÃ³n
Ġalg odÃ³n
Ġem erg
Ġdepart amentos
is ible
ĠJim Ã©nez
Ġvicepres idente
Ġmier da
Ġpregunt ar
Ġdemand as
AS A
Ġb rom
ĠelÃ©ctr icos
Ġterre nos
Ġla nza
Ġb est
Ġas im
O t
Ġambient ales
Ġh echas
Ġper jud
Ġla go
Ġsorp render
ĠEst atal
Ġvenezol ano
ĠAr quit
ĠPres up
Ġnov edad
e da
ĠOc cid
Ġas ust
ose s
ĠdÃ³ lar
ĠTÃ©cn ico
Ġpien san
Ġcomerci alizaciÃ³n
Ġat rev
Â Ķ
Ġconoc ÃŃa
Ġg iro
Ġterrit orios
ĠIgu al
r icas
ĠDoc um
Ġjugue tes
Ġmont ar
Ġinvit aciÃ³n
Ġdesconoci do
Ġcont ado
Ġinclu ida
f un
Ġacus ado
ĠC ond
Ġdesc ont
ĠP ie
Ġpu se
Ġ envid
Ġfacil ita
Ġvie jos
Ġpens Ã©
ed ora
Ġmant uvo
Ġra cional
ĠM ult
Ġnot able
Ġhuel ga
C re
ÃŃ nsula
Ġapar atos
Ġcent rales
Ġatra p
Ġpresup uestos
Ġciudad ana
Ġo v
s ierto
Ġtrans it
nes s
e sb
Ġfront eras
Ġconve nc
ÃŃ rez
Ġescuch a
Ġproy ecciÃ³n
ĠB et
Ġescol ares
Ġprev Ã©
d am
Ġext in
Ġinterc ambi
Ġpre para
ĠB ay
C ON
ĠautÃ©nt ico
re et
Ġmotiv aciÃ³n
ĠS ep
Ġllev amos
Ġalcanz Ã³
Ġindic ar
Ġsu ger
Ġposter iores
Ġa venida
ec te
ĠMa x
Ġcolabor adores
Ġcolabor ar
Ġdescubr imiento
Ġfac ult
d anza
Ġse nd
Ġindem n
ci da
Ġvende n
n mar
Ġautom Ã¡tica
or os
Ġinc ons
Ġdem uest
e sap
ĠM endoza
D os
Ġgra bar
ĠSal Ã³n
ĠÃ© tica
Ġ5 2
Ġperf iles
em entos
Ġop tar
ĠD onald
Ġsorp rendi
Ġport ada
Ġt etas
ĠvÃŃnc ulo
Ġdisp uestos
Ġm adrid
Ġentreten imiento
ĠIndustr ial
er ra
Ġmad rile
ado lid
om ar
ĠC R
Ġizquier do
Ġcompet ir
ĠTi empo
Ġjunt as
Ġdece nas
Ġint roduc
Ġf ib
Ġexpedi ente
ĠSel ecciÃ³n
Ġpresent aciones
Ġcap ÃŃtulos
Ġcol onia
f acciÃ³n
Ġconce jal
Ġam a
Ġbols illo
ĠS L
Ġnov elas
Ġcar o
Ġam ante
ĠMi ami
in f
ar to
Ġderiv ados
Ġalreded ores
Ġconsci entes
Ġqued ando
Ġnegoci aciones
ond uras
ĠSp ort
ĠR oc
C U
Ġadministrat ivo
Ġimport ar
Ġpas aron
ĠB ach
ĠPart icip
Ġencontrar on
Ġam par
Ġon da
Ġas iento
Ġr urales
P I
ĠGust avo
Ġt orn
e ngan
Ġabs ur
uer tos
ĠmÃºsc ulos
let ÃŃn
Ġbor do
Ġposit ivos
Ġdescan sar
A h
d esap
h ola
Ġdiag nos
ĠEdi tor
Ġprest ar
7 6
ĠDoc tor
Ġinc ap
Ã©r rez
iz ont
Ġcade nas
Ġreci nto
ĠMar ina
Ġmusc ular
Ġorganiz a
4 00
ĠEsc orts
seg uridad
Ġin olvid
Ġpresent aron
Ġas iste
ĠC e
t aciones
Ġquedar Ã¡
T AN
a gan
Ġencontrar se
Ġcons ecut
um er
on ales
Ġcircul ar
Ġem isiones
7 9
uest amente
uy entes
Ġmanten iendo
Ġinc ert
Ġresist ente
Ġsal idas
F ran
am anca
ar ch
Ġfi jo
us s
Ġfun dador
Ġrelig iosa
ĠFamil ia
def in
ĠG RA
T OR
Ġpresent ada
ĠD esp
ÃŃt imo
ĠB omb
ĠH el
Ġexte nder
Ġhuev o
P res
ĠtÃŃp ico
C D
Ġn ube
Ġv illa
Ġpet rol
Ġpul m
Ġsufr imiento
Ġmus ul
Ġinte nsa
ĠI v
V E
Ġgl oria
ĠO rig
ĠPue blo
ĠTener ife
t icas
Ġdormit orio
ĠB iblioteca
Ġreg ionales
s vi
ĠT ampoco
Ġavanz ado
Ġresc ate
Ġcorr iendo
ter iormente
Ġsal arios
uti Ã©rrez
ad y
Ġpais ajes
Ġ desap
Ġsuper merc
Ġcontinu o
e tenciÃ³n
m at
di t
Ġposee n
ĠRom ero
Ġviol aciÃ³n
e nmar
Ġdese nc
d etenciÃ³n
Ġqu inta
Ġg rÃ¡ficos
Ġgener ado
ĠGuadal ajara
Ġf at
Ã³ tica
Ġpu ta
ĠDel eg
ĠÃ į
Ġtarif a
ĠÃģlvar ez
n orm
Ġcert ificaciÃ³n
ĠAn im
T u
G R
ĠG l
ĠðŁ ĺ
Ġtrans mite
D D
Ġc aÃ±
or gan
Ġmerc ancÃŃas
z ones
T ube
ĠJo aqu
Ġsan ciones
ez co
por que
ac ar
ĠPat rimonio
Ġcual idades
ĠFue nte
Ġsost iene
Ġlo co
und e
omos ex
Ġescrit ores
ĠcÃ¡l culo
Ġmedi as
Ġcomple j
Ġcit ado
Ġ detenciÃ³n
ne as
i ologÃŃa
Ġcomplem ento
Ġcomien zan
tique tas
Ġcomprom isos
ĠCh rist
Ġembar c
Ġadministrat iva
ĠNatur al
Ġlas t
az ar
ill ado
Ġsent imos
Ġtrat ados
nd ente
Ġsigu iÃ³
ier as
Ġun ir
c lo
Ġclim Ã¡tico
Ġv uestros
t iva
d s
ĠL l
Ġvis ible
ĠMer cedes
am entales
Ġalem ana
Ġcap as
v est
Ġ enmar
gu ÃŃ
Ġbeb e
m et
Ġreconoci Ã³
Ã³n icos
e al
uc risto
Ġespect adores
gue n
ĠAgu st
Ġpas tel
Ġsu ceder
Ġdef ici
em Ã¡tico
ĠS AN
Ġv encer
Ġencant ado
Ġdese an
Ġbar ro
Ġlevant ar
Ġt apa
Ġjard ines
ĠO br
ĠK a
an y
Ġexig ir
oren zo
Ġo ut
Ġdo bl
Ġca za
ĠdiseÃ± ar
Ġcompart ido
itude s
Ġcu p
Ġr up
e sac
z i
ĠPal ma
Ġlin k
Ġartif icial
» ¿
Ġc il
Ġempie zan
Ã¡m etro
Ġs ienta
Ġestu ve
ĠComp aÃ±
ent re
Ġdirec ciones
ig h
ej ar
B usc
Ġesque ma
Ġven gan
Ġasc enso
Ġre nun
Ġcort ar
Ġmin erÃŃa
Ġperju icio
ĠTo ledo
Ġat mÃ³
Ġm uro
Ġvisit ante
Ġ1 000
Ġvot aciÃ³n
Ġ danza
Ġcort os
d esac
Ġincid encia
Ġcast illo
Ġmoder nos
ĠB ot
c otas
gar Ã¡
Ġoccid ental
Ġins ufici
er se
ug ue
Ġhab Ã©is
Ġmi el
Ġrent abilidad
rup ciÃ³n
it co
201 1
Ġsup era
Ġimp edir
Ġpatro cin
5 9
ĠRam ÃŃrez
Ġesper ado
Ġanteced entes
ĠBl ue
ĠDem oc
Ġimp rimir
Ġmantener se
Ġdiscrim inaciÃ³n
ĠNe go
Ġcoment ado
m uy
ĠS A
Ġj unta
Ġdeten idos
Ġente ndi
rase s
Ġvista zo
Ġti ra
ri les
p an
ĠAl fre
Ġsu po
Ġpobl aciones
F OR
Ġconvier ten
Ã ²
P r
Ġact Ãºa
J O
Ġcal ma
t le
Ġbr ind
ers iÃ³n
osit ores
ĠRaj oy
Ġbeb Ã©s
ĠGe orge
Ġaclar ar
Ġprom ete
Ġj udiciales
Ġ5 6
Ġcre an
T al
Ġan gust
Ġlle ve
Ġ199 7
gÃ¼e nza
ĠJ udicial
Ġrecib ieron
ec Ã©
ÃŃ genes
ĠV it
h ay
Ġcomenz ado
ĠRec ursos
Ġencant an
l l
endi ente
Ġprepar ados
Ġmov iliz
Ġafect ado
on ente
P OR
Ġtrat an
Ġpromo ciones
per s
Ġhid ra
ĠAgr icultura
el los
ĠAl l
Ġhosp itales
uel ta
id entes
ĠCon ce
Ġgimnas io
Ġform atos
Ġurb ana
ĠâĢ Ŀ
ĠRev ista
Ġ9 9
Ġcre ador
e svi
Ġlin do
Ġ zo
P a
Ġintelig entes
Ġinst ant
du zca
i Ã±os
Ġab uela
Ġher idos
col as
ach os
Ġdesgra cia
d esvi
Ġmult im
Ġm g
Esp aÃ±a
ĠLe e
Ġpas amos
Ġpres c
Ġrepar to
Ġqued aba
id ora
Ġdesarrol lan
à ¸
Ġn ev
Ġplan os
Ġp ale
Ġactu alizar
Ġindependi entemente
gr imas
Ġurg ente
ir os
Ġrev ela
Ġrealiz arse
Ġcomp uesta
Ġo di
Ġinf ecciÃ³n
Ġ desac
Ġt im
Ġsorprend ente
an ales
ent aria
Ġas imismo
Ġre torno
Ġ esm
Ġtrad iciones
R ep
ĠÂ °
EN CIA
Ġgras as
Ġse pa
ĠM E
Ġpar ado
ĠLa ura
Ġsu ya
ĠOb serv
Act ualmente
ol i
ia nte
Ġcond ena
Ġb is
Ġmanifi esto
Ġcomp arte
Ġresta uraciÃ³n
Ġp iz
cion ario
ĠD isf
Ġs ient
Ġpar e
ĠfÃŃs icos
Ġrespet ar
Ġtarde s
Ġcerc anos
or iales
Ġenerg ÃŃas
Ġexpl orar
ĠIn glÃ©s
Ġviv iÃ³
ĠG utiÃ©rrez
ĠAr gent
Ġtre me
ĠMan cha
Ġmet ab
Ġt abl
Ġpelig roso
ĠPue bla
ĠRiv era
m Ã¡n
ĠNic aragua
angel io
Ġch up
ici l
Ġbeb ida
Ġb ares
ĠMar iano
am inas
Ġment ira
Ã³di gos
Ġreconoci da
uc os
Ġmante nd
ĠSept iembre
ĠC ic
ĠC amb
ĠCat Ã³lica
Ġaf ric
Ġestat ales
Ġtriun f
Ġpens iones
Ġdue Ã±os
ee n
ĠCl ÃŃn
Ġsu cedido
Ġcom enta
ĠPr omo
Ġlig era
Ġco j
ĠAc ces
ĠT ime
Ġdul ces
Ġlocal idades
Ġotor ga
Ġcambi ando
Ġejemp lares
Ġir Ã¡
ante n
ici smo
ĠR esta
Ġh em
ĠâĢľ Â¿
Ġab us
Ġconsider ada
f ord
Ġad ulto
Ġnorm ales
Ġ engan
Ġconce b
Ġavanz ada
> <
Ġpon ga
Ġcumpl ido
Ãº st
Ġpresent arÃ¡
ĠP U
Ġsucedi Ã³
Ġprofund amente
Ġval le
Ġref rig
ig an
Ġvert ical
Ġgas tar
Ġpresent amos
Ġanim e
Ġexter na
Ġrad ical
entar ias
Ġindic adores
z Ã³
endi endo
ec os
Ġmanifi esta
Ġpol Ã©mica
Ġosc uridad
ĠGre cia
Ġob viamente
ĠB u
abr ia
ĠInform e
Ġapar c
Ġpres ide
Ġconsum e
Ġpint a
ĠEncuent ra
at ado
Ġ desvi
Ġex ag
Ġproced entes
Ġdesp acho
Ġdi rÃŃa
Ġbotel la
co p
P o
ĠMov imiento
ĠH ip
d ata
Ġaconse j
Ġextrem adamente
Ġlle n
Ġtranspar ente
Ġexp osiciones
Ġnave gar
Ġcap tura
Ġlograr on
rol l
r erÃŃa
Ġdeport ivos
ĠPÃºbl icas
Ġcre ce
Ġpoderos o
rÃ³ f
ĠT op
Ġn or
Ġcr uc
ĠElect oral
Ġhum ilde
Ġsust it
Ġefect ivos
Ġh omosex
ob o
Ġped idos
ĠFran k
st rucciÃ³n
Ġemp ate
ad ar
Ġart ÃŃstico
Ġah i
Ġbusc as
Ent onces
Ã¡n icas
ĠI ma
Ġgas olina
Ã³ viles
Ġcons a
Ġdirect ivos
ĠÃģ rea
ci endo
Ġpresup uest
ĠUr b
Ġindispens able
Ġvit amina
ĠJu z
Ġdeleg aciÃ³n
Ġdenun cias
Ġocup aciÃ³n
Ġefect ivamente
on or
Ġdid Ã¡ct
Ġmin isterio
b os
Ġg rÃ¡fica
Ġpol la
Ġco Ã±o
Ġdesaf ÃŃos
Ġrel ativa
Ġpens amos
Ġdesapar iciÃ³n
ĠprÃ©st amos
Ġpaque tes
Ġeduc ativas
Ġretir ar
Ġexpl or
Ġhi jas
Ġtecn olÃ³gica
d y
oc os
Ġdiv ide
Ġconfirm ado
gu era
B RE
ĠacompaÃ± ar
at ra
Ġcuch ar
Ġsa que
Ġch ina
ĠV ega
ez can
h ar
Ġconte ner
ĠH ola
5 7
Ġcambi Ã³
Ġpor quÃ©
Ġconsider Ã³
id able
Ġ18 0
ci tos
Ġpubl icados
ĠLÃŃ nea
Ġhomb ro
ier ro
Ġencontrar Ã¡
onc esto
ĠN A
Ġpas tor
Ġlla ve
ac he
qu eros
Ġvest ir
f i
h al
Ġcre encias
ic anos
N I
Ġpide n
ĠVall adolid
ĠC ro
Ã¡n eamente
ĠW il
ĠJes ucristo
Ġa j
be s
t aba
Ġperten ecen
Ġcont und
Ġedi ciones
u oso
Ġpus ieron
s oro
use os
Ġm och
Ġcon duci
ĠM otor
Ġcomple jos
id ro
ĠPara guay
Ġsup ongo
ine n
Ġatra er
Ġrec al
Ġnov ed
Ġdev oluciÃ³n
Ġence nd
Ġhab ÃŃamos
Ġcontrase Ã±a
Ġext rema
Ġlid er
ĠdÃ© ci
Ġg atos
Ġ5 4
P R
ch ar
Ġman io
g Ã³g
ĠGuer rero
orm a
Ġanim aciÃ³n
Ġ esqu
Ġtrop as
ĠhectÃ¡ reas
S us
ĠX VI
Ġ199 6
Ġdisfru te
Ġsepar ado
g il
Ġense Ã±a
Ġcad Ã¡
Ġunivers itarios
Ġintegr idad
ĠL orenzo
Ġconfirm ar
Ġextraordin aria
di ente
ĠDirect iva
Ġacab o
ĠL an
ĠacadÃ©m ica
Ġver la
Ġexpres iones
Ġi ra
Ġentrev istas
Ġepiso dios
Ġult ra
Ġpecul iar
Ġcompat ible
Ġpap a
ici embre
ĠRe ina
ÃŃ colas
ĠS ha
Ġfal tar
ĠCh ar
ĠestÃ¡ bamos
Ġreper c
Ġt ÃŃo
Ã±o z
Ġfase s
I mp
Ġnav idad
Ġpreocup a
Ġdeb iÃ³
Ġsobreviv ir
ĠS I
Ġ5 1
Ġcinc uenta
Ġcomb ina
Ġprestig io
Ġinvit ado
Ġras gos
Ġdep end
M a
Ġpart id
Ġ5 7
rat aciÃ³n
z ados
Ã³ tico
. ).
J os
Ġfrec uent
Ġhor izo
Ġ199 4
ĠA Ãºn
Ã³ st
e sierto
d esierto
ar ga
ĠhuÃ©sp edes
mo v
gr ados
Ġofici almente
Ġa ve
ĠEg ipto
ĠÃ©x itos
Ġpubl ici
Ġnav ide
Ġperd Ã³n
Ġclas ific
Ġlle nar
201 0
Ġal za
ĠautÃ©nt ica
ĠJ ac
Ġinf er
Ġincendi o
Ã¡ us
Ġincorp ora
Ġcrist iana
Ġobserv aciÃ³n
Ġocult ar
ĠP am
Ġsorp rende
Ġhor izont
Ġcotid iana
ens or
Ġsab idurÃŃa
Ġc Ã©
Ġmat r
estruc turas
Ġesc Ã¡nd
at l
Ġperd ida
ĠA ses
ĠK ir
ol ÃŃ
Ġtestig o
AR C
Ġin icios
ĠAl go
Ġcos tar
ĠM od
Ġp ion
Ġcree s
Ġbos ques
x e
Ġad quiere
Ġpregunt Ã³
ĠN uestros
Ġescuch ado
ik a
Ġ7 2
Ġdest r
e sin
Ġmar t
ince sa
ĠW est
T OS
Ġintegr ada
Ã¡n eo
Ġtex tura
ĠB ajo
Ġmone das
l ique
ĠlÃ³g ico
Ġsegu ÃŃa
S er
Ġa ula
Ġsup uestamente
ne os
Ġsuel do
Ġafect adas
Ġcont ando
ie bre
Ġne gar
ĠTel ev
Ġseleccion ado
Ġar e
Ġdest inados
Ġcom isiones
Ġconcl uyÃ³
5 6
Ġposicion amiento
Ġdetermin aciÃ³n
Ġla m
ĠT re
T odas
Ġtempor adas
ĠH onduras
Ġtras era
Ġblan cas
Ġ desierto
Ġnecesit aba
Ġexig encias
Ġj ajaja
Ġs ano
Ã§ a
Ġel ig
rÃ¡ nd
8 00
Ġadecu ados
ĠcÃŃr culo
AN A
Ġu Ã±as
B S
ĠC erv
P C
Ġhum anas
c r
ik i
ĠE D
Ġsole dad
d esin
Ġb ast
ĠV enta
u ses
Ġtecn olÃ³gico
Ġterrit orial
l fo
Ġgan adores
Ã¡m icas
Ġcu Ã¡nt
Ġrel len
v ado
Ġinf lu
Ġasoci ado
Ġdoctr ina
ĠPres idencia
re d
Ġimp ro
ĠEnf erm
Ġp ist
Ġint est
Ġcarre teras
Ã© pt
Ġreal ice
Ġnum ero
Ġc ro
Ġmara villa
uer te
Ġ199 5
ste in
Ġsex y
Ġra yos
Ġempres ariales
Ġtra ge
ĠEmp res
ines s
Ġinvers ores
Ġsent ado
Ġconv iene
Ġargent inos
us h
Ġcal ificaciÃ³n
Ġparticip a
Ġlimit ada
Ġsit Ãºa
Ġf ortuna
Ġtra ves
Ġsol os
Ġm u
Ġpil otos
Enc uent
Ġdesp er
Ġoper adores
h h
Ġencuent ras
lo w
Ġconform an
Ġcabal los
Ġsem estre
Ġdestru ir
Ġenfrent a
Ġarreg lar
m al
ĠT oda
Ġrod ea
um as
Ġlog ros
ad illa
ĠM ate
ĠA F
Ġtom o
Ġpar ezca
Ġacomp aÃ±a
u ado
ĠAng el
ĠH ijo
Ġterror ismo
il an
Ġra ci
ĠJ unio
Ġgener ando
Ġbr once
vil a
Ġent era
Ġr ÃŃos
Ġce n
ĠF ront
Ġtit ulares
Ġdar te
Ġcompar ten
Ġmas as
ist ente
Ġvoc aciÃ³n
Ġconces iÃ³n
Ġlimit aciones
ĠMaur icio
Ġrelev ancia
Ġcorreg ir
Ġp ico
Ġaprob Ã³
ĠEx pl
re ndimiento
Ġayud arte
Ġreflex ionar
Ġarquit ect
ĠL iter
ĠT O
d ea
P as
Ġhub ieran
Ġinm ueble
Ġinvestig ador
Ġpat rones
Ġn az
Ġemprend edores
ĠS istemas
Ġcre ativo
oc ho
Ġinaug uraciÃ³n
ĠMin istro
Ġprofes ora
Ġrefor zar
Ġdecor ar
ĠatmÃ³ sfera
ã Ģ
est im
di ciÃ³n
ic ciones
se t
e gust
Ġemple os
ĠquÃŃm icos
Ġch av
ĠInf antil
d egust
Ġcul to
Ġemp e
Ġjud ÃŃos
Ġav iones
Ã¡s ico
Ġmanten ido
iv ir
enten ario
ĠAtl Ã©tico
tur b
ĠM em
ĠFlor ida
t iz
b ack
Ã©di to
Ġsuper vis
ĠbÃ¡s icamente
ĠOr tega
Ġinc om
ci ta
Ġsal ieron
ĠEst at
t ion
Ġetique ta
ion ista
ne n
Ġ5 9
Ġarre p
Ġobten idos
ĠFuer za
t ran
ĠCar acas
ĠDeport ivo
Ġcontras te
EN A
Ġbon itas
Ġ desin
Ġcant ar
Ġofreci Ã³
ĠAb og
Ġpla zos
ĠdÃ©b il
r s
endi Ã³
** **
Ġdecir le
us k
Ġtras tornos
Ġla p
v ÃŃa
Ġentrev ist
Ġsecund arios
rim e
Ġus ados
gr ada
Ġcont aba
Ġsens ible
Ġequip amiento
Ġg em
Algun os
Ġsomb ras
Ġcuar enta
ĠC ualquier
Ġ199 0
Ġ degust
Ġper diendo
Cu Ã¡l
Ġdescrib ir
Ġprofun di
Ġarm onÃŃa
Ġautom Ã¡tico
Ġcomet ido
Ġconex iones
Ġpar ques
Ġc uente
ĠLuc as
Ġt ib
Ġcomplej idad
Ġanun cia
ĠT ri
Ġtar dar
Ġtrist eza
Ġimp ide
Ġsin i
t ero
ĠEncuent ro
ĠAl ianza
Ġpe g
aque ta
ĠH ombres
er ador
ĠDe s
Ã ¤
Ġreac ciones
Ġcoci nar
Ġamb ientes
Ġespeci alidad
ĠS um
Ġaver igu
Ġvolunt arios
ĠDis ney
Ġjap onÃ©s
Ġinstitu to
ic to
di as
ik o
Ġdecir lo
Ġfiel e
h ÃŃa
Ġfiele s
Ġincert idumbre
Ġfundam entalmente
f in
Ġha gas
Ġdirect ores
Ġand alu
it iva
Ġpat ria
Ġp acto
ing os
ĠC V
Ġcr Ã³nica
C L
Ġad mite
ase n
ĠF ut
Ġfor est
Ã¡lo gos
Ġdestac ados
Ã©r icas
Ġinst a
ĠN ike
ĠClar o
Ġdesarroll Ã³
Ġmost rando
ĠGu ÃŃa
an n
Ġsec uest
Ġplen amente
jal Ã¡
Ġsur t
Ġenv iÃ³
Ġpersonal izado
Ġis rael
ue ven
il ado
Ġdeci dieron
at aciÃ³n
Ġasegur an
Ġtra te
Ġprev ista
Ġneg ras
Ġpresent arse
ur Ã³n
Ġr id
x t
om ento
Ġocup ar
Ġsemej ante
ĠPrim er
Ġprov is
ĠR ES
ĠpÃ¡rra fo
Ġrenun cia
Ġpermit iendo
ĠR ay
ĠT eresa
A b
Ġ5 3
Ġir se
Ġro ca
ĠAbr il
ĠYou Tube
ĠCh amp
ĠMac ri
Ġext remos
ĠA quel
Ġ use
Ġzap atillas
v ol
Ġrap idez
Ġcorre os
Ġinform Ã¡tica
am arca
ĠMar ia
g Ã©n
Ġmus ica
Ġfront al
Ġensay os
Ġcub anos
ĠBol sa
Ġelect orales
Ġdel e
ĠMu Ã±oz
Ġconqu ist
Ġmas cotas
Ġcer te
a ves
Ġleg it
Ġmedi ciÃ³n
t ora
Ġflex ibilidad
Ġhab iendo
Ġaqu Ã©l
ĠJoaqu ÃŃn
ĠConstitu cional
C or
ĠW ord
Ġb uc
Ġinform aciones
iz c
sap p
Ġpo emas
Ġinte nciones
Ġregist rÃ³
ĠAnt igu
ĠPar ece
v ideo
Ġun idos
ĠTo ur
Ġclar os
al im
IN G
Ġpant allas
gra mas
Ġtransf er
Ġse v
gres os
Ġrevel Ã³
ĠS ecciÃ³n
un ya
Ġcamis etas
Ġ5 8
id enta
Ġfinanci amiento
t iles
Ġsup uestos
ĠMar ta
J uan
Ġcu otas
Ġpote nciales
n om
Ġnerv ios
Ġinter venciones
Ġcos m
Ġexp one
Ġconduc tores
gu i
Ġdesapar ecer
ÃŃ var
ĠPÃ¡g ina
Ġfort aleza
on ible
Ġex Ã¡menes
Ġimp ar
Ġdeport istas
Ġpol it
Ġpel e
Ġexter no
ĠAmb os
Ġfantas ÃŃa
Ġfor os
Ġ( âĢľ
Ġcos tado
Ġmol inos
Ġencont raban
st al
Ġur gencia
D entro
ĠB ale
ĠOl ÃŃmp
Ġentre gÃ³
te a
ĠConf erencia
le os
Ġfut uras
Ġital iana
Ġcan s
ĠSir ia
Ġrecur rir
Ġmascul ino
Ġra mas
Ġdol ores
ĠVas co
aci os
Ġpar to
it aciones
Ġdisfrut ando
Ġcu sto
Ġ7 00
Ġconserv ar
ion ada
Ġnar iz
Ġconj unta
ĠT ro
Ġliber ales
Ġform ada
Ġtur ÃŃstica
ĠR amos
ese s
as i
Ġempez aron
Ġconcep ciÃ³n
Ġver ificar
Ġproto colo
Ġcer rÃ³
al idades
ig ma
Ġj ab
Ġb ola
Ġest Ã©s
ĠAc uerdo
Ġsec ciones
j era
Ã©r pre
Ġsindic atos
CI O
ĠA T
ĠB ill
Ġsust ancia
Ġex ista
ĠM ach
Ġre cep
Ġextraordin ario
Ġcu ra
ĠL lam
Ġautom Ã³vil
Ġsan ciÃ³n
Ġrespect ivos
ien dan
Ġprop uesto
ĠP RE
Ġconse jero
ĠL oc
Ġl ice
Ġrep os
Ġefect uar
ĠacompaÃ± ada
Ġconstitu ciÃ³n
Ġh ech
ĠAn Ã¡lisis
Ã¡t iles
Ġpe ne
Ġcaf et
Ġcorresponde n
âĨ ĳ
Ġp i
] ,
al iciÃ³n
ĠD entro
ĠquÃŃm ica
Ġapar entemente
Ġvol ar
ĠBe at
Ġfav ore
R eg
ĠSal amanca
ĠD iciembre
ĠPar k
emb ra
Ġcomp rado
Ġun ido
ĠO v
Ġam ort
Ġbloque o
ĠH az
Ġrese Ã±a
Ġconect ado
Ġab und
Ġveget ales
Ã¡ ut
Ġsem if
Ġpre p
Ġtir ar
Ġcom edia
t adas
eb an
Ġinici ado
u qu
Ġcon fes
Puede s
z ando
Ġloc ura
id ra
Ġv imos
Ġcol oca
Ġentusias mo
Ġcho que
ĠResp ons
J E
Ġrem edio
Ġexter iores
Ġvol ante
ĠD ia
ĠtrÃ¡mite s
Ġcapital ismo
V amos
Ġosc ura
Ġconvenci onal
H A
Ġof f
Ġabor to
jet ivo
ci entos
uev o
Ġdist ra
Ġactitud e
Ġdecid ÃŃ
Ġactitude s
Ġtur ÃŃsticos
Ġconst ruct
ĠincreÃŃ bles
Ã© ano
s g
ĠCap it
Ġhue sos
Ġadop ciÃ³n
ĠI z
ĠE dad
Ap p
ili ario
Ġsum amente
Ġguar dia
Ġconce pt
di sp
ĠSer Ã¡
ĠB re
al ia
Ġcier ra
Ġal turas
ĠConse jerÃŃa
cep to
Ġquer idos
ĠUS A
Ġs illas
Ġadecu adas
ĠD VD
Ġcal zado
Ġembara zada
Ġperf eccion
Ġ0 9
ic ol
Ġver Ã¡s
Le er
Ġsignific ativo
Ġrazon able
Ġob tenciÃ³n
Ġsosp echos
ĠPre cio
Ġh allar
Ġenv ÃŃa
ing ue
Ġmec Ã¡nica
Ã³m icos
ur i
Ġenc uestas
Ġcor rientes
Ġol iva
rÃ³n ica
di to
aj ar
Ġhig iene
Ġt atu
ĠÂ ĵ
Ġunivers itaria
Ġfant Ã¡stico
Ġrel o
Ġpropor ciÃ³n
ĠDip utados
Ġsue los
ĠMa est
av or
Ġban ca
Ġaplic able
c re
Ġreconoci dos
Ġsolici tado
ĠMed ina
Ġfas ci
ab uena
Ġinterf az
AD OS
Ġred acciÃ³n
C OM
Ġcult ivos
Ġenerg Ã©tico
Ġaut ent
ĠG old
e smo
Ġve int
Ġmete or
Ġresult an
H O
C at
Ġr ivales
Ġay untamiento
P L
Ġmi x
ist erios
Ġca ÃŃdo
Ġdesemp leo
P ER
Ã¡ndo los
Ġnut rientes
Ġterap Ã©ut
Ġdif undir
Ġdeci mos
b io
Ġpa v
J o
ur ada
Cu Ã¡
Ġsom eter
ĠQu iero
Ġconcret amente
Ġfach ada
Ġtab las
Ġenc er
Ġfil tro
y n
in osa
olly wood
Ġ199 3
Ġdenomin ada
Ġreg lam
Ġgust aba
el ia
M adrid
ĠseÃ± ores
ater al
iz e
om at
Ġb oc
Ġgrab ado
Ġno ble
Ġhici era
Ġper don
Ġob ed
Ġinm un
ĠI ra
Ġpreocup e
Ġcompar ar
ĠHab ÃŃa
al d
Ġsab ores
ĠS ac
ch ner
Ġpudi mos
5 8
Ġfavor ecer
Ġesp ada
200 7
Ġpap Ã¡
ĠSu iza
Ġaument ando
ĠHer rera
ĠVer acruz
Ġconst antes
Ġincid ente
d ent
aci Ã³
ĠdiseÃ± ada
Ġsop ort
ab ora
Ġ ost
Ġlle go
ĠPla ya
ore o
are n
Ã± ad
uel to
ĠE c
Ġima genes
Ġpo ema
Ġyo u
Ġven ga
ist Ã¡n
Ġp p
Ġmonit or
Ġperman ece
Ġpersonal izada
Ġgu iÃ³n
Ġpint uras
am ent
ĠP erio
Ġf la
Ġconc reta
Ġma il
Ġrecomend aciÃ³n
Ġaf iciÃ³n
Ġlim Ã³n
Ġexter nos
Ġfal so
M uchos
7 2
Ġentre gado
ĠTransp orte
Ġm igra
Ġmejor ando
s ec
Ġcer rada
ĠV ideo
ĠK ing
Ġrelo jes
ĠTÃ©cn ica
Ġdefinit ivo
Ġap uestas
Ġre pl
M Ã©
Ġsin cer
Ġblo ques
Ġcal orÃŃas
ĠExt rem
Ġf idel
Ġsof ist
Ġcon cil
Ġ data
Ġform ando
Ġ6 6
r ÃŃamos
Ġad ent
Ġoper ar
Ġconlle va
Ġdra ma
Ġt Ãºn
ien se
c to
ĠmÃ³d ulo
Ġpantal ones
Ġhabl aba
Ġver gÃ¼enza
Ġp eces
Ġdep osit
Ġmezc lar
ĠT rip
Ġne ut
ĠhipÃ³ tesis
ĠS w
Ġsel ect
Ġ Î
ĠH y
Ġtransform ar
Ġcub ana
ig ura
on iendo
Ġentend ido
Ġsobre todo
ĠÃ©p ocas
ĠÃºn icas
ï ¼
Ġempez ando
Ġac aso
Ġcircunst ancia
Ġpro ce
la ntes
Ġconclu ir
il ados
Ġant igÃ¼edad
ĠT rib
Ġdi oses
Ġconm em
Ġaport an
ĠCuer po
ĠH ue
an dos
Ġm ama
Ġfavor able
Ġdi Ã¡metro
Ġdesp lie
ĠExter iores
Ġbar b
Ġeurope as
Ġo ÃŃr
Ġcop ias
?? ?
ĠEr n
Ġsat Ã©l
eb ra
Ġmaest ra
S T
Ġsalud os
Ġem bal
Ġdin am
Ġir rit
Ġespectac ulares
Ġpregunt o
Ġdet ecciÃ³n
ÃŃge no
Qu ieres
uy an
Ġm apas
lan os
Ġsol itario
Ġan h
ĠG alax
Ġcar g
Ġej ecu
Ã© ctor
ĠRo ja
ĠP ant
Ġvenezol anos
Ġcar p
Ġpunt u
Ġcons ig
ĠS ara
ĠM Ã¡r
Ġempez ado
ĠR ural
Ġ199 2
Ġcr uce
Ġ6 9
us al
id iÃ³
ĠMall orca
ĠRod rigo
Ġexport aciones
Ġapoy a
Ġp un
E P
5 4
Ġhomb ros
ä ¸
Ã³ ct
Ġseg mento
Ġ6 8
Ġcent ra
rÃ¡ tico
ĠEsc rit
p od
Ġextra cciÃ³n
si qui
Ġaprovech ando
Ġconf iar
Ġc anto
ĠMar k
Ġf icha
Ġse ca
Ġrealiz amos
Ġdar Ã¡n
Ġreun ir
i amos
gue s
ON A
Ġne uro
ĠmÃŃn imos
Ġdesc u
ĠMe del
ol ut
Ġestableci das
ĠT ipo
Ġsuperviv encia
Ġtrabaj amos
Ġacerc arse
Ġtal entos
ĠRio ja
d esb
or s
Ġexcl u
act ado
ub a
i hu
u ana
Ġcontemp la
ĠVar gas
Ġrequer imientos
ĠVal ent
Ġrelig ioso
Ġc Ã³digos
ĠC aja
Ġrecib irÃ¡
ĠC af
c uando
F el
IEN TO
Ġpre ca
ĠA venida
Ġsurg iÃ³
ĠV ill
Ġinter rump
Ġexpres amente
ĠEle na
Ġjust a
Ġdisc re
Ġrel ativo
Ġejemp lar
co ta
Ġmedic amento
ers on
Ġcons ola
inte ndo
ĠCab all
Ġpotenci ar
Ġale gre
Ã± ado
up e
Ġneg ativos
Ġelev ada
Ġinclu idas
e sem
Ġprobl emÃ¡tica
v enta
ĠP i
Ġcru zar
ke n
Ġintent Ã³
Ġexte ns
d esmo
ĠB aja
ud encia
Ġsop ortar
Ġllam o
Ġma ÃŃz
Ġexc usa
c ast
ac ÃŃa
Ġpuer tos
Ġta x
---- ----
Ġcontemp lar
ĠCh e
Ġag ro
G ran
ĠEqu ipo
Ġcam as
EN TA
Ġg oma
Ġt et
ĠMunicip io
Ġre act
ect ar
Ġbas ados
Ġhum o
Ã¡st icas
Ġles b
AR I
ĠE U
Ġflex ible
Ġpr el
Ġgo le
Ġg ala
ke y
Ġr ara
Ã©m ico
Ġconvenc er
Ġcar peta
Ġmagn itud
fit r
ad re
lan dia
Ġmen ciÃ³n
am or
Ġre bo
Ġn ubes
Ġreserv ar
Ġf ina
Ġcerc anas
Ġatract ivos
Ġevit ando
ĠF ar
ĠBer lÃŃn
ĠP ay
Ġperiodi smo
Ġor ÃŃgenes
ĠLib ert
om Ã©t
Ġt uyo
Ġconde n
Ġ9 00
T ES
Ġdi eci
Ġdro ga
ĠR eb
Ġsu man
Ġcert amen
ĠC C
ĠMar zo
Ġded icaciÃ³n
Ġh ero
Ġec o
Ġacces ible
Ġsal iendo
Ġvolver Ã¡
Ã³ ma
Ãº me
n ico
Ġj ajaj
Ġmens aj
Ġcult iv
ĠRec ord
ĠEx tra
Ġfra ude
Ġnucle ar
ĠP ilar
ut er
ĠC uent
Ġarm ado
Ġ desb
Bue nas
T iene
Ġpla y
ĠBue na
Ġcomenz arÃ¡
Ġsustitu ciÃ³n
aci miento
P art
Ġcal ientes
Ġsalud ables
ĠfenÃ³me nos
na val
ĠInte gr
ĠDep orte
5 2
uev as
ĠJ on
Ġac aban
tar se
ĠM one
Ġaband ono
Ġterre st
in k
Ġig n
Ġvar iar
ĠAn al
Ġgr iego
Ġcomple ja
6 00
ĠEditor ial
Ġfarmac Ã©ut
ĠPers onas
P os
ra teg
Ġhabit ualmente
Ġl entamente
r illo
nci almente
Ġconsid ero
Ġlib ert
Ġsustitu ir
Ġrep orte
Ġm ister
Ġexpl icaciones
I ON
Ġadaptar se
Ġsac a
ĠacadÃ©m icos
ĠTom Ã¡s
ĠO pen
CI AS
her ente
ik ip
Ñ ı
ĠT end
ĠQuiz Ã¡s
Ġfalle cido
ond rÃ¡
Ġencar gada
E F
oy o
Ġchile no
ĠRo jo
ĠON G
Ġh amb
ĠComerci al
Ġcont ento
Ġesp ont
ĠF ra
ĠEstudi o
Ġfoll ando
Ġident ificado
Ġmedi ev
Ã© neros
d esem
Ġcompet ente
ustr ia
ĠVil lar
S olo
Ġdesact iv
Ġper eg
Ġg el
Ġatra ves
Ġprom esa
Ġpre domin
Ġm ide
ĠJe an
Ġgra mos
ur rir
ĠN adie
k ia
Ġdesapar ecido
Ġt ac
Ġmas ajes
Ġult imo
Ġ desmo
Ġan fitr
Ġ3 60
Ġhab lo
Ġconsider ando
Ġespect ador
ĠL icenci
Ġimp ut
Ġinici almente
icios o
ĠBar b
Ġest ÃŃm
ĠInnov aciÃ³n
Ġprop ici
t ivo
Ġmo nte
Ġnomb rado
Ġcrim inal
ĠJos ep
Ġllor ar
Ġunivers itario
Ġimp erme
Ġdeterior o
del a
ĠAlfre do
Ġpl us
E B
Ġap ret
Ġmuer tes
Ġbacter ias
Ġmostra mos
ĠSu Ã¡rez
5 3
ac tor
Ġafirm ar
iz ador
Ġampl iamente
ĠcrÃŃt icos
e u
Ġve an
Ġcontam in
Ġre tor
Ġdisp onen
Ġpas arÃ¡
Ġmem or
Ġan aliza
ĠP acÃŃfico
Ġp ido
Ġadel ga
Ġpid iendo
ef ici
Ġs anto
Ġobst Ã¡culos
und ido
que t
Ġfil as
ci almente
e k
ĠSe n
Ġexp uesto
l ing
Ġcale facciÃ³n
L C
Ġagre ga
Ġg ros
Ġ desem
Ġpe ores
ĠP ere
Ġgan ando
ĠIn genier
Ġsob ra
ric k
Ġsacerdo te
endi entes
Ġsab iendo
Ġpat as
Ġhue co
ĠF otos
Ġbel lo
Ġcog nit
ĠEx isten
Ġcon greso
Ġfal tan
og ÃŃa
ĠCatal unya
ip a
f erencia
p y
Ġdisc ÃŃp
ade n
ĠMet ropolit
O O
Ġnerv ioso
ĠRep res
Ġo ch
Ġs or
Ġdar les
ĠSan idad
Ġcompetit ividad
un os
ĠperiÃ³ dicos
P P
ĠB ig
Ġpl acas
Ġdesast re
par te
ĠSE O
ĠGener ales
Ġherm anas
Ġinfer iores
ĠCat eg
ĠSil va
Ġexp oner
Ġh erencia
Ġcolomb iana
ĠV ideos
ĠCarta gena
Ġbe sos
ur io
ĠmÃºs ico
Ġdens idad
Ġfac ultad
C iudad
Ġne ur
ĠE t
Ġint entado
Ġconfig urar
Ġenferm os
ĠCam ino
Ġtecn olÃ³gicos
oci miento
ĠI VA
J e
ĀĀĀĀĀĀĀĀ ĀĀĀĀĀĀĀĀ
ĠXV III
Ġprim as
Ġconoci Ã³
Ġhist ori
Ġcor ona
Ġsan guÃŃ
Ġc ed
ĠOb ras
ĠIs las
ĠSeÃ± ora
Ġcab ec
Ġg ases
Ġconst ancia
Ġestar emos
Ġcont ag
Ġcarb Ã³n
F oto
ĠCon ven
Ġdiscut ir
Ġcomplem entos
lo c
Ġcom itÃ©
Ġencuent ren
Ġa ur
Ġpa gan
e sor
Ġsup oner
Ġsem anal
Ġsan itario
cion amiento
ĠelÃ©ctr icas
Ġrepar ar
Ġg ab
Ġbrasile Ã±o
Ġrefug io
Ġev ita
Ġret iro
Ġc av
mit h
Ġac ordar
or dia
Ġ eno
ĠL y
Ġdirect iva
Ġdispon emos
l ip
Ġbot ones
Ġsum erg
Ġfalle ciÃ³
Ġdeb idamente
200 9
Ġtam aÃ±os
Ġest Ã³ma
Ġoblig ados
Ġjefe s
Ġcl Ã¡us
ĠD ic
az Ã³n
Ġr usa
C abe
Ġtransc urso
r ara
Ġserv ido
Ġdefin ido
ÃŃ l
Ġcole gas
Ġfal la
go b
Ġcerte za
ĠCent er
Ġmad uras
Ġperspect ivas
7 3
M C
g Ã³n
ĠTer rit
Ġch or
Ñ ĭ
Ġpens iÃ³n
Ġconst ruc
ĠlÃ¡ grimas
ĠF rases
Ġse no
htt p
Ġconf irma
Ġutiliz adas
Ġban dej
Ġindustr ias
Ġmodern as
8 2
Ġran king
Ġmens uales
Ð° Ð
Ġcoordin ador
ĠGlo bal
k ers
E se
p ing
G RA
ĠAgust ÃŃn
Ġjue gan
@@ @@
Ġherm osas
Ġdist rib
ace ta
Ġf usiÃ³n
Ġpier na
Ġoper ativos
Ġlengu as
ĠAD N
ĠC OR
ive n
Ġsacrif icio
7 4
ĠCon diciones
nc o
Ġpsic ologÃŃa
Ġse as
Ġatac ar
Ġ ^
re os
s ia
x imo
ĠE u
Ġtrage dia
ĠPsic ologÃŃa
ĠS ky
Ġadvirt iÃ³
Ġbot as
Ġnar cot
v ed
Ġcomp one
Ġbusc o
Ġsuper ado
ĠP eter
Ġrem un
A nd
8 3
Ġad or
ge nd
ros s
Ġceb olla
Ġpref erencias
ĠDeb ido
Ġmarc Ã³
Ġsobres al
Ġdirect os
Ġc ement
Ġad j
ĠJu ventud
Ġ Ã©n
gas te
Ġadecu adamente
ikip edia
ĠExtrem adura
Ġsig las
Ġprov iene
ĠCent ros
ĠL ic
Ġdi ariamente
Ġt Ã³x
ĠCan aria
Ġolv ido
ĠÃģlvar o
e udas
Ġcomp onen
Ġvit aminas
Ġab uelo
ĠP u
it z
Ãº menes
Ġquir Ãºr
Ġcandid atura
Ġvariedad e
ĠSt reet
d eudas
Ġmedi odÃŃa
Ġent ran
rue cos
Ġten is
5 1
Ġalf omb
Ġemp render
Ġvariedade s
IN E
b ilidad
ĠP ase
Ġman chas
Ġdeje s
Ġcas ualidad
ul ador
ĠD ev
ĠIn ici
c eres
Ġsorp resas
Ã³ b
Ġc Ã³n
Ġprohib ido
Ġespect Ã¡culos
ĠT I
6 3
ĠCompaÃ± ÃŃa
Ġcab les
Ġm io
r ill
Ġgol f
ĠPl us
Ġl ingÃ¼
est ima
Ġllam e
Ã¡st er
ie sen
d uros
ĠFran ce
Ġ ida
ĠP ul
Ġdi arias
one x
ĠJ al
Ġsust ent
Ġprepar ando
at ina
Ġlogr ando
Ġrefle jo
h ua
Ġprovoc ado
Ġbusc ador
Ġext iende
Ġr isa
Ġprol ong
Ġcam iones
Ġpor te
ĠsÃŃ ndrome
Ġalum nado
Ġac ude
Ġ deudas
am ora
Ġjust amente
Ġaut omo
Ġal qu
ĠPro ces
Ġfuncional idad
y le
ĠC I
Ġconsigu iente
Ġsac Ã³
Ġdi al
Ġtec lado
Ġcomplic aciones
Ġb odas
Ġinterm edi
Ġafect ada
ĠVale nciana
% ),
Ġolv ides
Ġinf ecciones
. ),
Ġsub iÃ³
Ġt ribunales
Ġbusc amos
ĠR og
Ġlater ales
h asta
Ġcomunic arse
S erv
Ġrum ores
i u
Ġdeleg ado
ĠN Ãºmero
Ġreg lamento
Ġleg ado
lar o
Ġgu apa
Ġjug Ã³
R eci
ere ncial
T RO
Ġcontinu amente
Ġenf at
Ġas ientos
Ġl ema
Ġrepres iÃ³n
hor abuena
Ġnos otras
Ġimper ial
Ġsos tener
ĠTrabaj adores
ĠSeg ura
Ġmat e
Ġprop agan
Ġminist ra
Ġp ir
Ġagr ÃŃcola
Ġb onos
Ġadminist rador
ul ina
Ġcent ÃŃmetros
Ġfirm ar
Ġgra cios
ĠBur gos
form e
Ġprovoc Ã³
Ġcr uel
ĠOt ras
Ã¡s er
det ermin
Ġmoto ci
Ġap ag
ej eje
all y
ĠC omb
Ġbol iv
Ġal iados
Nos otros
Ġmanip ulaciÃ³n
ter n
Ġanunci ar
Ġcol ch
Ġmat emÃ¡ticas
Ġincumpl imiento
Ġtemp rana
Ġfres ca
ĠdemocrÃ¡ tica
n ica
Ġperteneci ente
ĠI rÃ¡n
Ġescal eras
ific an
ĠtÃŃp ica
Ġsen ador
Ġbar cos
Ġcancel aciÃ³n
ĠF inal
ĠAh ÃŃ
Ġoper ador
Ġesc onde
Ġp ack
ĠMex icana
ĠV ent
Ġcre ativa
Ã³r icos
Ġproced ente
Ġ up
ÃŃs mo
Ġres um
if er
t is
S C
od avÃŃa
ĠP ot
Ġfal sa
Ġsuperficie s
Ġint Ã©rpre
T AS
Ġloc alizaciÃ³n
Ġar oma
udi a
Ġrelig iosas
Ġdirig idos
Ġtras p
Ġbanc aria
c ore
Ġi OS
p art
Ġv uestras
ĠMarcel o
rimon ial
, "
Ġsan itaria
Ġin ox
Ġs anta
ĠN intendo
Ġdese ado
Ġfut ura
7 1
gu as
E O
s el
Ġp aÃ±
Ġrinc Ã³n
Ġmult in
Ġin ad
ĠA gosto
ÃŃ d
ver d
Ġ duros
aci as
ĠFuer zas
Ġexport aciÃ³n
ĠM etro
Ġlin da
Ġla ct
ch os
Ġs tock
Ġf ar
Ġcaus ado
ĠP ok
Ġcr ÃŃmenes
P F
Ġagrad eci
8 1
Ġintroduc e
ĠTel ef
Ġpol ar
6 2
ĠSin dic
Ġbrit Ã¡nica
Ġcant a
Ġmot os
Ġfi jar
Ġdesc onoce
f ecto
Ġclim at
ĠCoci na
Ġdeterm ina
Ã¡ndo les
ĠIg lesias
aj os
Ġpal est
Ġ( ...)
Ġro jos
ĠmÃ¡g ico
f asis
ĠReserv a
Ã©c do
al lan
e sg
ific adas
I nd
Ġinm uebles
Ġarran que
ĠH Ã©ctor
ont rar
Ġlle nos
so bre
Ġap a
Ġterror istas
ĠM ot
ĠV a
Ã¡n g
ĠCap ÃŃtulo
Ġob tend
Ã¡ zar
aa aa
ĠAs untos
ĠH ollywood
lant a
Ġllev arse
ie ve
ĠCas as
Ġaudi tor
Ġsust anci
Ġconduc tas
Ġrequis ito
Ġexte nsa
Ġactualiz aciones
ĠestÃ³ma go
Ġdiagnos t
cul a
Ġemp ecÃ©
Ġref uer
Ġinal Ã¡m
Ġadminist rar
Ġcorre dores
S ol
Ġbol so
Ġajuste s
Ġp ez
Ġrefer entes
N ot
Ġluc ro
Ġdiscipl inas
Ġcast igo
? âĢĿ
ĠG rado
ĠPrim aria
Ġinvit amos
Ġabunda nte
Ġjug ado
Ġarm ario
vert ido
Ġcora zones
Ġpart ÃŃculas
in go
ĠCo ordin
Ġapro bar
Ġrode ado
ac Ã¡n
Ġacom od
ĠR uta
Ġcub ierto
Ġaceite s
Ġsignific ativa
ĠF arm
Ġf oco
Ġconde nado
ĠT im
p at
Ġca os
ĠS k
ĠGre e
Ġcar gas
Ġep id
Ġle ÃŃ
Ġhaci Ã©ndo
er ciÃ³n
bo ok
Desc ripciÃ³n
ĠBol ÃŃvar
Ġre yes
Ġob vio
Ġcam iÃ³n
Ġdirig iÃ³
Ġvic torias
aliz an
Ġrelig iosos
Ġprop oner
Ġadv ierte
Ġproduct ivo
Ġro bar
icult ores
Ġter cio
Ġnacional idad
Ġig lesias
Ġprot estas
Ġad entro
Ġarquit ecto
Ġexperim entado
Ġas ent
Ġcoloc aciÃ³n
Ġoblig atorio
Ġadquir ido
ĠM U
amb a
e nom
Ġpal acio
Ġrestric ciones
Ġcort as
ĠI SO
Ġmover se
Ġpier das
d esg
Ġespaci al
Ġsencil los
b or
Ġte orÃŃas
ĠR oy
ĠAlm erÃŃa
Ġpond rÃ¡
Ġqu ita
o jo
lo ud
ĠG in
Ġamb ul
ĠB oy
ec erÃŃa
ĠGe n
amb ios
ĠÃ©n fasis
Ġub ica
Ġrebel d
iel os
Ġa zar
Ġaz ules
esc a
ĠestratÃ©g ica
Ġautor izado
Ġpas ados
Ġhorm ig
ÃŃt icos
6 1
lo t
ĠN ieto
Ġv amp
ĠPh il
Ġpar cel
Ġp df
Ġregist rados
Ġherm an
Ġfin ca
ĠdiseÃ± ador
b i
Ġref iero
Ġrebeld e
um os
ĠR ÃŃos
Ġencar ga
Ġp ac
ĠOrg Ã¡nica
Ġexplos iÃ³n
Ġcorresp ond
Ġpros per
Ġefect ividad
Ã¡ndo te
200 8
Ġguer ras
Ġtray ecto
te ar
rÃ¡ ul
ĠH uelva
Ġgratu itos
Ġestableci Ã³
Ġdej aba
Ġnorte americano
Ay er
Q UE
ĠXX X
Ġcamin ando
Ġint entos
Ġsab Ã©is
onas ter
t om
Ġalm uerzo
Ve n
Ġpoderos a
Ġsindic al
Ġconsider able
Ġpag inas
ĠCor uÃ±a
Ġoptim izar
Ġdeclar ar
ĠR ib
ĠId ent
Ã³n d
ate ur
Ġcert ificados
Ġinn eces
Ġreemp laz
Ġ desg
dom Ã©st
Ġingenier o
an ÃŃas
ĠMunicip alidad
it an
C an
ĠSon y
Ġcon versiÃ³n
Ġimplant aciÃ³n
ĠD eci
ic he
Ġas amblea
Ġinteg ran
ĠcompaÃ± era
ĠP rost
Ġgu ÃŃas
ĠmÃ³d ulos
ĠL anto
v Ã¡
Ġtom ate
Ġin da
ĠS S
Ġtorm enta
Ġdest ro
Ġimp erio
c Ãº
Ġdesee n
Ġprote ge
Ġg Ã©neros
Ġcent r
ĠMa estro
Ġcomien zos
Ġdesc art
at s
ic ulares
Ġperteneci entes
gra ciÃ³n
Ġra ma
Ġconce j
Ġsu ici
Ġalem anes
Ġtoc ado
âĢĿ ;
ĠR ojas
ĠM olina
abe s
n is
Ġfund ada
ĠJ ef
Ġmanz ana
Ġdig no
Ġactiv ar
Ġdemuest ran
Ġs ar
ĠenseÃ± anzas
ie ga
Ġinter nas
Ġcomer cios
Ġjap onesa
ĠfÃ¡ rm
Ġotor gar
u guay
Ġcom arca
Ġ6 2
Ġcum bre
Ġconserv a
Ġab urr
Ġant io
s App
Ġcap itales
Ġpubl icit
T ienes
Ġpre c
Ġenfrent arse
ĠA seg
Ġcomple tos
ugu Ã©s
an dar
Ġhacer te
Ġameric ana
Ã³nd e
C ap
Ġtab aco
Ġ199 1
Ġp iano
I ÃĵN
ĠDis c
Ġdec lara
ĠP N
blo g
Ġtr on
Ġent ornos
Ġsig an
G E
Ġatra cciÃ³n
ĠSe gu
ĠF C
Ġseleccion ados
Ġ ero
ĠF ord
est ad
or y
Ġtras torno
Ġpres os
uj as
ĠLib ertad
Ġcre ÃŃa
Ġab ar
Ġpreocup aciones
Ġetique tas
Ġcor on
Ġprol on
cional mente
Ġp ÃŃ
Ġc emento
Ġal as
ĠV io
Ġsald rÃ¡
Ġflo ta
ĠT erc
Ġaparc amiento
Ġliter aria
ĠIncl uye
ĠPo wer
ĠArt uro
Ġsorprendi Ã³
g al
Ġsug iere
Ġcrist iano
ive s
Ġco ca
d enom
Ã© ramos
Ġb inarias
Ġproporcion an
Ġverdad eros
Ġsi entes
sc h
Ġvis ibilidad
Ġsosten ibilidad
Ġlo go
Ġcar di
ĠN ob
Ġdisp uta
ĠC AM
Ġretras o
ĠEdi ciÃ³n
Ġtras pas
ĠmÃ¡ r
ĠProduc ciÃ³n
Ġmas iva
Ġsan itarios
Ġaisl amiento
un ar
ĠSer ie
I Z
p el
Ġtelef Ã³nica
V O
Ġh et
ĠA ce
Ġ( âĢ¦)
Ġsub t
Ġprotagon ismo
ĠC art
ĠPre nsa
Ġauto p
Ġtr ucos
Ġlleg aba
Ġher ida
E Z
ĠSup rema
ĠInst al
Ġcam ione
ĠEn ero
Ġescrib iendo
ĠLe ngu
Ġdep Ã³sitos
rig ht
rec ta
Ġc ere
l ando
ĠacompaÃ± ados
ist ros
Ġtrans acciones
Ġinfra estructuras
h ist
Ġvend ido
te os
ĠB oca
Ex isten
Ġcre adores
Ġexitos a
Ġa us
Ġan Ã©cdo
Ġf ert
Ġsalv aje
Ġconvenci do
Ġhuel la
Ġo y
ĠCar olina
ĠF ÃŃsica
Resp ecto
Ġcint ura
ĠF ort
Ġlibre mente
ul an
Ġminist ros
st em
Ġimp ec
ĠJuz gado
Ġa got
Ġindi sc
Ġsent ÃŃ
d uer
ĠR A
IC AS
ĠUnivers al
oo oo
Ġrecord ado
Ġex ci
Ġtrabaj Ã³
Ã³ so
Ġfrance ses
Ġmencion ados
Ġem ot
Ġdar nos
Ġrec ono
ĠF idel
d ental
Ġcap tar
Ġacog ida
Ġh aremos
D ep
que ta
Ġcol ecciones
C al
Ġh inch
CI AL
he im
ĠMedel lÃŃn
ĠBar rio
Ġquer ÃŃan
Ġllam aba
Ġacost umbr
Ġvend edor
Ġbasta ntes
Ġentre nar
Ġliber al
Ġconf usiÃ³n
Ġconfirm aciÃ³n
Ġref iriÃ³
Ġdirect orio
Ġsmartph one
ĠEst aba
ĠI D
Ġrup tura
la za
Ġan illo
Ġmob iliario
it ch
Ġcon fe
Ġm uros
ĠCh icas
Ġsuper visiÃ³n
ĠRich ard
t r
Ġcontin Ãºan
Ġcer rados
er ica
Ġcontrib uye
Ġre gener
Ġur uguay
Ġh s
ĠFeder ico
ĠJorn ada
he siÃ³n
Ġint imidad
ĠGeneral itat
p roduc
Ġproven ientes
ĠA eropuerto
Ġcumpl iendo
Ġ0 8
ĠP IB
Ġlice ncias
ĠO ff
Ġn et
Ġsal do
Ġatract iva
Ġestabl ecen
ĠpÃ¡ jar
ĠDec lar
Ġ 000
ĠIn g
Ġrealiz arÃ¡n
Ġ6 3
ĠCal der
Ã©l gica
ist ÃŃa
r ÃŃas
Ġexist ÃŃa
Ġsof Ã¡
Ġtem bl
Ġfin anzas
Ġolvid ado
Ġmun diales
ĠS AL
itco in
Ġorden adores
Ã©r icos
Ġcol eccion
Ġmas cota
Ġv ientos
Ġdesp re
Ġsal tar
Ġmer ecen
Ġviv ÃŃa
Ġhip er
Ġmedio amb
ĠPe que
Ġm useos
N eces
Ġeg res
Ġtritur adoras
ĠvÃŃnc ulos
Ġcat Ã³lica
ĠTel Ã©f
Ġid Ã³n
Ġaum entado
ĠProp iedad
at arios
ind e
Ġimpro vis
Ġperse gu
ĠZ el
ĠdiseÃ± adores
Ġcre cido
ĠIntern ational
Ġ denom
Ġhacer nos
Ġentren amientos
t era
Ġmol ienda
Ġpa gado
Ġenf ermo
ĠS c
Ġb eca
Ġhorizo nte
Ġcr udo
ĠG B
ace te
b at
Ġm igrantes
Ġn acer
ur go
ĠP AR
Ġmatr ÃŃcula
man e
Ġre mar
Ġv ial
Ġpol iciales
Ġent rado
Ġas ume
Ġav anza
Ġp m
B e
Ġsex to
Qu iero
Ġconcl uye
Ġprev ios
rect or
Ġgest ion
Ġtermin an
Ġn atal
Ġinme nsa
Ġsalv aciÃ³n
ĠA qu
Ġmill on
Ġhard ware
ĠK im
ĠsÃŃmbol os
Ġh Ãºme
Ġrecib iendo
Ġcla us
Esp ero
em Ã¡ticos
if f
Ġcolomb ianos
Ġat ras
Ġpost re
Âº C
Ġ duer
Ġque j
Ġconc retas
ĠS OL
ob a
an co
Ġintere sar
par as
Ġ20 20
ĠFi esta
r ista
Ġsecretar ia
Ġexpl oraciÃ³n
Ġno ve
Ġreci cl
ĠF ebrero
Ġsac ado
ĠE R
Ġsirv iÃ³
ĠMar c
ĠA ur
ĠCat edral
Ġch amp
ĠT est
ol ib
ĠS op
Ġculp able
IF A
Ġrec ta
Ġescas os
Ġmod alidades
b ro
Ġsac o
Ġar rib
Ġdeb ilidad
Ġagres iÃ³n
Ġcont estar
Ġdup lic
ï »¿
Ġh in
Ġsim bol
it ado
Ġdi vers
ĠM P
e is
Ġnutr iciÃ³n
ĠAl var
ĠH acer
ĠÃ¡r bit
Ðµ Ð
ĠescÃ¡nd alo
ne ncia
Ġpopular idad
Ġdelicios o
Ġsug erencias
Ġagrad ecimiento
Ġresal tar
Ġconse nso
ĠP ir
m x
ĠPro cur
Ġtoc Ã³
Ġin seguridad
Ġl iv
Jos Ã©
m s
P al
ĠCom entarios
iller ato
ut ers
Ġant ib
ue z
rec to
ĠF abr
Ġsober anÃŃa
uf act
at ero
Ġtrip le
Ġma quina
Ġdesarroll ada
Ġfranqu icia
9 2
ĠEst r
l amente
Ġson re
Ġrev est
ap e
Ġesp aÃ±a
ĠGree n
Ġreun iÃ³
ĠdemocrÃ¡ tico
ĠL it
verd e
Ġco di
ĠAlcal d
me nos
ab y
one ses
Ġinsp ecciÃ³n
qu ita
og Ã©n
unt amientos
Ġr in
ĠModel o
ax aca
E sa
Ġayud ado
C am
ĠTex as
Ġtras ero
9 6
ĠTor neo
ĠTur quÃŃa
ĠB M
Ġvig entes
n Ã©
ĠB B
Ġinolvid able
ĠJu Ã¡rez
ĠT E
ĠGrande s
Ġch inos
S Ã³lo
ĠC uenca
Ġgust aria
Ġpint or
Ġpeda gÃ³g
ĠM Ã¡ster
Ġfilt ros
âĢĿ )
ĠJer usal
a u
Ġingles a
que tas
Ġg lor
Ġdej arÃ¡
Ġsan cion
Ġaport aciÃ³n
Ġcos tas
Ġre enc
ER S
Ġarreg lo
Ġresp iraciÃ³n
ĠB O
Ġtom aron
eder aciÃ³n
Ġsal va
i us
ĠV at
Ġcar dio
Ġneces ite
ĠS un
Ġr iego
Ġconf eccion
Ġjoy as
Ġfil os
Ġex am
ĠestratÃ©g ico
ĠJo an
Ġdi am
ud al
E tiquetas
gar a
Ġherm osos
Ġbat erÃŃas
Ġmenci ona
ĠcontemporÃ¡n eo
Ġterm ine
ad urÃŃa
Ġor to
ĠM ob
Ġquede n
idal go
Ġl Ãº
ĠQ U
h acer
ĠO R
s k
Ġpref erencia
g anta
Ġvan guardia
D isp
Se Ã±
inta ge
Ġmis iones
Ġacum ulaciÃ³n
Ġdisp aro
ĠP erm
Ġal mas
ĠCol omb
ĠB rit
Ġ198 0
Ġdistin ciÃ³n
ri ar
ÃŃt ima
Ġprom ueve
ĠB Ã¡s
Ġdesplaz amiento
Ġlect uras
R ed
ĠK o
ĠGalax y
Ġs ell
Ġdeje n
D S
Ã©r ida
id i
ĠI sa
Ġpan eles
Ġpers ecuciÃ³n
Ġaprob ada
Ġsencil las
ĠAlcald e
ĠC onde
Ġagrup aciÃ³n
Ġb ecas
Ġemp i
ĠCant abria
ume s
min as
Ġat entado
os idad
s idad
Ġhab rÃŃan
eci a
Ġap ortes
Ġle ve
Ġesc orts
Ġpre sta
Ġorient al
ĠP AN
N unca
Ġcump la
Ġesf or
Ġox ÃŃgeno
Ġocup ado
t ambiÃ©n
Ġtrad uce
Ġorden Ã³
Ġt iende
Ġfutbol ista
Ġt os
Ġaudiovis ual
ĠLe ague
Ġconsider ados
Ġsur gen
h as
Ġro to
Ġdetall ada
ĠP int
s at
igu iendo
Ġcombin aciones
Ġocul ta
Ġequip ada
Ġc Ã©nt
Ġaer olÃŃ
Ġasist ente
ĠCon serv
Ġw hat
ĠS ing
Ġcontro vers
Ġases orÃŃa
Ġop era
di sta
Inc l
jet ivos
Ġm l
Ġg ritos
ĠF OR
ÃŃ bl
Ġ11 0
Ġapart amentos
ĠPar te
Ġpl ana
Ġimag ino
Ġrub ia
in arios
Ġdecidi mos
w een
ĠMar gar
Ġadel gaz
Ġ Ø
Ġac oso
ĠEm ilio
Ġab usos
ĠÃºlt imamente
m on
lant as
Ġadm ir
b ras
Ġextranj era
ĠH onor
olv iÃ³
ort h
Ġmat ric
ĠC ora
ĠPue nte
im ar
Ġdef ectos
ĠP rom
Ġrel leno
P N
Ġab arca
ĠT IC
Ġrest ring
Ġsindic ato
ĠMes si
Ġrep utaciÃ³n
ĠP unta
u ve
Ġdemost rÃ³
ier re
Ġinst ancias
Ġfacult ades
lan da
ĠU V
no w
Ġsu yos
Ã³m etro
Ġinf ierno
ĠM oda
Ġtrit uraciÃ³n
Ġperm isos
ĠIv Ã¡n
ĠacompaÃ± amiento
ĠIN TER
aliz ando
Ġapell ido
Ġcont ribuciÃ³n
et s
ĠfotÃ³graf o
iet nam
Ġr io
Ġautom Ã³viles
ĠP rÃ¡ct
ĠAm ar
Ġ za
ĠJ uego
Ġreflex iones
Ġch arlas
Ġpretende n
Ġid Ã©nt
ĠiP ad
ĠI t
Ġpal o
uent o
ĠImper io
Ġj er
Ġ dental
Ġposit ivas
Ġeleg ancia
em bol
ĠP oco
ol lo
ĠS os
y ecto
x id
Ġnot ificaciÃ³n
ĠH erman
id ge
Ġbor rar
mo h
U sted
Ġcambi an
mane s
Ġbal cÃ³n
Ġa jo
Ã ¢
Ġt ent
ĠT ok
Ġdo bles
ĠM I
Ġsup uesta
Ġenfrent an
Ġinox idable
ĠsÃ³l ida
Ġcas ual
Ġbille tes
aci l
Ġv ota
f as
âĢĶ ,
Ġofre cido
Ġadministrat ivos
Ġvari aciones
Ġsocial istas
ĠAr ro
Ġinv itar
ĠAm pl
Ġrecomend ado
Ġdistin guir
ĠÃŃ nte
ĠEst ad
u rez
qu era
Ġjust ificar
Ġalar ma
Ġsegu ida
ĠNav arro
ie d
Ġgl uc
Ġob e
ĠN ombre
ĠC ientÃŃf
Ġdef iende
ĠG ast
Ġo la
ra to
Ġbar ras
ĠdiseÃ± ados
Ġjug ada
y t
uc k
Ġpre nda
Ġr ige
ĠMar ruecos
uj eron
M as
Ġsec uencia
Ġlu cir
Ġ6 7
Ġpe nas
ĠAb ra
Ġgrad u
Ġcomp uestos
ĠSe guir
Ġrespect ivas
Ġenfrent amiento
ĠPre venciÃ³n
Ġres ulte
Ġand a
Ġsol ares
Ġpereg r
que o
Ġfamos as
Ġgo ogle
Ġin Ãºt
Ġs oc
Ġpre ju
ĠV Ã¡zquez
Ġatra e
t ipo
ĠT RA
Ġconfig ura
ĠLin ux
Ġar rend
ĠO ut
Ġencant Ã³
le nd
nd encia
R ef
Ġdenomin aciÃ³n
Ġaprendi endo
Ġafil iados
ĠS ector
Ġimp one
Ġadminist raciones
ĠGonz alo
Ġbal oncesto
m pa
Ġconstru ida
Ġhor ror
ĠA u
Ġfal sas
s ci
Ġdi Ã³
Ġcuer da
ĠS or
ĠT aller
Ġre ÃŃr
Ġfund amento
Ġta za
Ġcon gre
Ġide ologÃŃa
us ieron
Ġsolicit Ã³
Ġpat atas
olog ia
ĠConsult ado
Ġfavor itas
Ġremo nt
Ġacab ados
Ġa u
ĠJ ose
Ġescap e
Ġdest inada
No ta
ĠRub Ã©n
Ġcel ulares
Ġap rueba
ĠX box
Ġsens ib
vis or
Ġt ienden
ĠConst rucciÃ³n
ÃŃm etro
er rey
Ġcomb inado
ĠT ig
Ġconc retar
Ġle o
ĠPal mas
ĠrÃ¡p idos
ĠJ ane
ĠR y
ĠWhat sApp
Ġbus que
Ġt ern
at ing
Ġvincul ados
Ġdecide n
B N
Ġst and
d aban
ord inaciÃ³n
ĠMedi terrÃ¡neo
Ġdismin uye
dic amente
ĠCar rera
Ġproteg ida
ĠF A
Ġincendi os
Ġre af
u as
Ã© ct
s us
Ġinclus ive
di g
ĠL is
Ġdist ancias
Ġindic ador
Ġman da
ĠsÃ³l ido
vie sa
ĠSimp lemente
Le s
Ġfe n
Ġmedi oc
Ġestre cha
Ġbur gue
Ã¡ c
Ġ6 1
Ġreclam o
Ġpav im
Ġcumpl an
ĠMater ial
Ġjurisdic ciÃ³n
ĠT Ãº
ĠN ivel
B o
Ġdiv isas
lo ad
s vent
Ġba il
om i
ĠPrem ios
Ġl Ã¡ser
E ra
Ġpart idas
Ġexcl usiÃ³n
Ġconsigue n
Ġat ento
Ġale gra
ĠEst eban
Ġdenom ina
ĠG reg
d uras
Ġjo venci
Ġev ac
ĠG or
ale n
Ġp Ã³l
ĠLib ros
Ġbomb as
Ġbas adas
ĠConc urso
ĠT ol
Ġacab e
G o
ĠEn v
m un
ĠM ens
Ġmin or
Ġceleb rada
Ġedi tar
Ġcam isa
Ġcereb ral
Ġrenunci ar
rop ecu
Ġcur va
Ġ dr
Ġque jas
Ġreac cion
s ent
Ġcent rar
ĠPort al
n m
T anto
ĠC OL
Ġretir ada
Ġtre nes
Ġm ie
ion Ã³
Ġajust ar
ĠlÃŃqu idos
Ġveget al
Ġc ente
Ġdesper di
Ġco aliciÃ³n
Ġdescub riÃ³
Ġobe sidad
Ġrefug iados
g Ã¼
ĠEst adio
Ġm entales
Ġk it
que te
Ġprop uso
Ġses enta
Â ²
ĠMos cÃº
N uestros
Ġofrecer Ã¡
Ġmejor ado
Ġtel ecomunicaciones
Ġl Ã¡m
di e
Ġdesp leg
Ġbar rera
Ġcomprom ete
Ã³l icas
Ġinsc rib
Ġlist os
Ġv ibra
. ;
Ġemit ir
Ġpe at
Ġc Ã¡p
Ġpas adas
i jas
à ¤
Ġente ndimiento
Ġrece pt
Ġgen Ã©tica
Ġexpl ican
Ġsatisf echo
d udes
Ġpr ÃŃncipe
Ġfeder ales
ĠC F
Ġal i
Ġcic los
Ġregres a
Ġperman encia
dad ores
Ġfin o
Ġaliment aria
Ġpref iere
Ġtr igo
å ¤
Ġcom eter
Ġp im
Bue nos
j ect
Ġ dudes
200 6
Ġper te
Ġabandon ado
EN D
Ġdeb ÃŃan
Ġrepro ducir
ĠÃ¡ng ulo
Ġeter na
Ãģ N
ad ÃŃa
Ġcomerci antes
im ens
ex t
Ġp h
ĠD ay
Ġprofundi zar
Ġaplic ado
Ġtor os
Ġauto estima
ihu ana
us elas
Ġampl ias
od y
Ġvenezol ana
Ġmed alla
Ġprepar ada
Ġbre v
te ns
Ġestacion amiento
Ġpes ado
Ġlog ran
Ġplant el
Ġpare s
ĠVal d
ĠConven io
Ġdistin gu
Ġpresent ados
P l
Ġapro x
ult ura
Ġfact uraciÃ³n
ĠDef in
ĠN oche
ncion ales
Ġm ulta
ĠM AN
Ġproces ador
Ġch anc
ĠAgu as
Ġregist ra
ĠSeg uros
ĠM O
ĠN iÃ±o
Ġmante quilla
Ġsens ibles
Ġpract ica
Ã³n imos
ate ar
t emente
Ġdesa grad
Ġmun dos
ug h
ul ario
ĠE va
ĠUt iliz
9 7
Ġfil a
ĠsÃŃ ntesis
Ġreg ula
ĠCon ocer
ĠCON S
Ġrendi r
Ġsint iÃ³
I nv
Ġinform acion
Ġa ulas
rÃ³ geno
Ġfun da
Ġprostitu ciÃ³n
Ġcas ta
Ġrode an
Ġenvej ecimiento
Ġap ostar
icit aciones
w ell
ĠL imp
Ġacog edor
Ġsacerdo tes
mp ara
Ġb ord
ĠEv aluaciÃ³n
Ġinevit able
D ise
Ġurb anos
Ġcob ro
Ġcub iertas
Ġfil Ã³so
Ġ198 9
Ġextin ciÃ³n
Ġfilos Ã³f
Ġv o
Ġcondi cion
ĠP ont
ust er
Ġrevolucion ario
ĠClÃŃn ica
gust o
ĠU s
ĠT ech
Ġinici ales
Ġmov ilizaciÃ³n
Ġrefer ido
Ġcolum nas
ar iado
ĠprÃ¡ct icos
Ġtur b
ĠO este
ĠE TA
Ġcil ind
Ġex ha
rÃ¡ tica
Ġque ja
ch ado
Ġm emb
ĠC y
Ġintegra nte
Ġproduc ciones
man n
Ġjuz gar
Ġeje s
Ġintelect uales
Ġbrilla ntes
Ġencar gados
Ġmar g
u osa
ĠH am
ad eras
Ġacep tado
ĠR an
ĠH isp
Ġneg Ã³
ch i
Ġju go
Ġliter ario
ĠseÃ±al an
Ġm ig
Ġfuncion ando
Ġpe gar
Ġdecir te
Ġh ura
Ġempez amos
h ÃŃ
Ġpar cialmente
Ġto pe
Ġcumpl iÃ³
Ġdesc al
Ġadministrat ivas
Ġcorre dor
e svent
l ad
d esvent
Ġgan adora
ĠHar ry
Ġdirig idas
Ġsol teros
ĠS cho
Ġinnov ador
Ġg rito
Ġestableci da
ĠCon v
aliz aciones
Ġj erar
Ġb ibliot
Ã £
Ġgar aje
Ġl ente
z ob
Ġtratar se
Ġhacer la
ĠZ o
il do
ĠRec on
Ġases ino
ĠGar ant
t ecn
Ġcalcul ar
aci n
PA Ãĳ
end ent
ĠðŁ Ļ
ĠpÃºbl icamente
Ġconst rucciones
Ġextra er
qu illo
Ġtrat Ã³
ĠCon cepciÃ³n
ĠRef orma
CION AL
Ġmad ura
rec ho
Ġparal elo
Ġimp uso
Ġconf ront
er ados
Ġprohib iciÃ³n
Ġ9 8
Ġant rop
Ġfol lar
on entes
l era
ĠM ora
Ġinform Ã¡ticos
Ġir Ã¡n
Ġintent an
Ġt witter
Ġexig encia
Ġactu alizado
Ġsu aves
ĠD C
Ġin hib
ĠGu z
Ġrec ortes
Ġgalle tas
Ġder iva
Ġin est
Ġj eje
Ġune n
ven idos
Ġlim ita
Ġvelocidad e
ac Ã©n
Ġbar reras
Ġa ustral
Ġrinc ones
Ġbod ega
Ġcomport amientos
ĠAmb iental
Ġdesc omp
Ġmetab ol
Ġac cede
il y
Ġperio d
ĠF eb
ĠG PS
ĠC Ã¡r
Ġcatal ana
s gaste
Ġpersonal idades
if t
ĠF omento
Ġ desvent
Ġvelocidade s
Ġl enta
Ġj aja
Ġlu jos
ĠcontemporÃ¡n ea
acter ÃŃsticas
ester ol
Ġhue so
Ġdenunci ar
Ġtex til
Ġtut orial
ab ar
Ġescla v
ĠProy ectos
ch an
Ġn it
T ran
Ġa ho
Ġl Ã¡p
Ġespecif icaciones
ĠSa int
Ġdisp uesta
Ġllegue n
Ġdist ingue
i Ã©nd
ĠPr ue
ĠF ire
ĠSue cia
ĠArquit ectura
it amente
Ġindic aciones
Ġmater i
Ġm ito
Ġlim itar
Ġaconte cimiento
Ġsol teras
Ġm isterios
ĠCas i
Ġmis a
Ġconsider amos
Ġch ef
ap s
ĠB Ã©lgica
ĠF echa
Ġinc apacidad
ĠOr tiz
Ġpro xim
Ġhid ro
Ġl ici
Ġesc o
âĢľ ,
e sgaste
Ġcomun a
ĠCol Ã³n
Ġconqu ista
d esgaste
âĢĿ :
Est Ã¡s
d Ã¡ndole
ĠObr ador
Ġ14 0
Ġfavor ece
Ġrenov ar
Ġbur b
Ġ13 0
Ġdeg rad
ĠZap atillas
Ġprote ÃŃna
Ġfu ga
ĠP s
Ġ3 50
Ġmur ieron
f or
Ġro j
Ġdelinc uentes
Ġayud arÃ¡n
Ġadolesc encia
Ġcontinu Ã³
Ġdelant era
ĠC ad
Ġpas ap
Ġfuer temente
Ġcampes inos
Ġam e
l ados
id is
Ġpa utas
ĠR ies
A CIÃĵN
ĠL leg
ĠautÃ³n omos
m ado
Ġ daban
Ġapunt Ã³
Ġfirm Ã³
Ġub icados
Ġla zos
ca v
Ġperu ano
Ġs tar
in ero
Ġsuces os
ke s
Ġhorizont al
ren al
ĠCh ia
Ġdenunci Ã³
Ġsorprend ido
Ġ9 1
ĠR iver
l om
Ġob ispo
rÃ¡nd ose
Ġban car
Ġasoci adas
omet raje
Ġbotel las
Ã³ ticos
Ġvisu alizar
Ġsinc ron
ner s
Ġex acta
og rÃ¡ficas
S h
ĠC ambio
at Ã¡n
ag s
Ġnegoci ar
m ico
v ana
Ġgener Ã³
Ġinv as
ĠViv ienda
do c
Ġcomplic ada
Ġvisit ado
Ġreclam ar
in eros
Ġdep os
Ġdesarroll ados
Ġpubl ico
P M
ĠSo ftware
ĠB ob
it amos
Ġinform aron
ĠM oto
Ġub ic
Ġfrecuent emente
ĠCom pl
Ġagr ÃŃcolas
Ġ duras
Ġserv irÃ¡
Ġfalle cimiento
Ġ dÃ¡ndole
k m
Ġlo ca
Ġluch ando
ĠO F
ul la
h erencia
Ġlog ÃŃstica
Ġpis cinas
Ġqued amos
k u
Ġelectro domÃ©st
ab ellÃ³n
Ġfum ar
Ġsens or
Ġalmace nar
ĠP y
ĠB ellas
ĠÃļ lt
Ġ desgaste
Ġpref ieren
Ġmencion Ã³
ĠChica go
Ġfich ero
Ġingenier os
Ġport uguÃ©s
ĠcÃ© le
ĠH idalgo
ĠK at
g am
Ġrodil la
e sal
Ġmarc ada
ĠU so
mo to
Ġpr incesa
Ġre vÃ©s
Ġhol and
ĠS l
Ġpost al
Ġgubern amentales
ĠGro up
ĠRes ult
Ġcan ad
Ġt inta
Ã© ase
Ġsir va
ĠCo nten
Ġcan san
Ġfact uras
Ġemp rendimiento
ĠPal abra
Ġpref iero
ĠIntegr al
n atur
Ġmet ales
Ġterror ista
Ġartic ulo
Ġafirm aciÃ³n
Ġcompromet ido
Ġpierde n
Ġdesarroll adores
Ġagre gado
Ġdepend encias
Ġfra ct
Ġ ï¿½
ĠG R
p uede
N e
Ġliter almente
Ġdif icil
Ġautob uses
Ġro cas
ĠH ome
Ġprev istos
ĠRec uerda
ale t
Ġtra igo
ĠCh at
Ġprom esas
Ġfinanci ar
di ta
ĠH P
ĠCalder Ã³n
ĠC AL
ĠBue n
Ġvirt uales
Ġfortale cimiento
ĠJerusal Ã©n
unt as
Ġit iner
r Ã©is
Ã³lo ga
Ġvie jas
ĠJ unto
ĠB art
Qu iz
b res
ĠT ermin
ĠImp uesto
Ġleg almente
Ġarro j
h ara
Ġcor recciÃ³n
Ġpet iciones
ent amos
Ã¡ ce
Ġperio dos
cas o
Ġsente nci
Ġaf l
ĠA gre
Ãº o
Ġaport aciones
Ñ Į
rim ientos
ĠF IFA
fl ix
Ħ ¢
Ġcic at
ĠArch ivo
ĠJe ho
Ġsusc ept
Ġvirt udes
Ġeter no
ian ismo
P RO
Ġdi gan
ĠM anz
Ġdefens or
Ġser lo
Ġbicic letas
Ġmol esta
ĠPla nta
ĠT ienen
Ġinter rog
ĠS mith
ĠJav a
ont an
Ġcomp ositor
ĠMan ual
Ġfabr icado
Ġcar iÃ±os
Ġdesped ida
Ġneg ativas
? )
ĠSegun do
ĠPos teriormente
ĠZ e
Ġasegur arse
X X
ĠAtl Ã¡ntico
ĠC it
cla je
Ġat letas
MÃ© xico
ĠJur ÃŃ
Ġadap ta
el io
Ġcob ra
ĠOv iedo
Ġcur vas
ĠAudi encia
Ġsan idad
ĠAl g
Ġpresent ando
Ġlo got
fe o
Ġpercib ir
ĠAp p
Ġher ido
t ivos
Ġaprop iado
Ġfa una
Ġm ina
idad os
Ġluch as
ĠJ an
Ġla var
Ġfre nar
ri an
Ġvide oc
M IN
ĠFin anzas
Ġproto col
Ġm aj
ĠAc ceso
ĠUr ban
Ġcreci Ã³
Ġasoci ada
Ġpens Ã³
Ġremo del
Ġmar ihuana
Ġc ima
Ġanci anos
ĠK m
Ġcomp radores
uer as
Ġas fal
Ġprovis ional
Ġdar me
Ġbandej a
Ġrad i
Ġinv ad
Ã³ bal
Ġce nar
Ġfal los
Ġpen ales
9 3
ps is
Ġdesigual dad
Ġic ono
ver dad
ĠAct ividades
ent r
Ġreal icen
Ġcit ada
ific ador
di jo
Ġhip erte
Ġbel las
Ġcur r
Ġlla ves
Ġhid rÃ¡ul
is on
Ġsub iendo
Ġase qu
Ġper if
ĠErn esto
Ġbrut al
Ġcos echa
Ġ0 2
ĠS uc
do nt
Ġtraslad ado
M in
d ren
Ġtestim onios
ĠZ amora
Ġneum Ã¡ticos
Ġindic ando
ĠJ am
Ġru idos
rec emos
Ġciv ilizaciÃ³n
âĢ¦ âĢĿ
ĠFue ntes
Ġcompetit ivo
Ġmagn ÃŃfico
Ġtelef onÃŃa
Ġlo gre
Ġutiliz amos
Ġem br
Ġal a
ĠA ire
Ġsexual idad
ĠtÃŃp icos
ĠMonte video
d esal
ar Ã©
Ġinter venir
Ġacerc amiento
av ier
el erÃŃa
ĠO S
Ġth is
est os
Ġmostrar on
S erÃ¡
quil ib
Ġtecn olÃ³gicas
Ġfabr icar
Ġcomp rador
ĠEst rateg
Ġconj untamente
Ġt ob
Ġ7 8
Ġfant Ã¡stica
Ġincorpor ado
Ġnorm alidad
ĠA G
Ġf iebre
Ġcab ezas
ĠX D
Ġarter ial
l s
Ġbon itos
Ġcre encia
ĠS pa
Ġus ada
Ġcas ino
Ġport ero
ue nci
er no
% ).
Ġson ora
ĠCon venciÃ³n
Ġp siqui
ĠAlb ert
ĠG ay
Ġinst rucciÃ³n
Ġconsigu iendo
ĠMich el
br icas
Ġconc ursos
ĠEm baj
Ġlle nas
et ti
ra nte
Ġense guida
Ġinvoluc rados
Ġbor ra
Ġchile na
Ġalter aciones
ĠB all
Ġases inado
ĠV irt
Ġ; )
Ġotor gado
cedi Ã³
and e
Ġs ho
ĠCiudad anos
9 4
Ġampar o
Ġform Ã³
Ġded icados
ogra f
Ġapas ion
Ġded ican
T o
Ġpedi mos
ID O
200 2
Ġmolest ias
Ġesc asa
eric ordia
Ġsab ia
Ġfest ivales
ian g
Ã³ d
Ġemprend edor
ĠF ol
al ta
Ã©t era
Ġre an
Ġescal era
pl ica
ĠQuiz Ã¡
Ġperfect as
Ġconc retos
Ġdeber ÃŃamos
u alizaciÃ³n
Ġa vi
Ġrob ot
Ã³cra ta
Ġclas ificados
Ġ8 4
Ġdiv ina
x o
ta je
ĠLiter atura
ĠGobern ador
ver sa
Ġ dren
Ġasign atura
Ġap res
ĠTh omas
E G
ĠMÃ¡r quez
Ġcom andante
Ġenf rente
Ġ0 7
az os
m all
Ġecu ator
Ġmanifest ado
Ġv ela
Ġvari aciÃ³n
" )
Ġexha ust
d esar
Ġmar rÃ³n
Ġplante ar
ir re
Ġdiv orcio
g ran
F C
Ġelev ar
ue ga
ĠCu atro
Ã³x ido
Ġdesf ile
at rÃŃa
vil le
Ġcon ecta
Ù Ħ
Ġol ÃŃmp
Ġdepender Ã¡
Ġexhib iciÃ³n
id s
, âĢ¦
Ġdeb eres
Deb ido
ĠCE O
las t
Ġtom ada
ĠIn icio
Ġrob ots
Ġdec ÃŃan
Ġsec os
Ġdeber Ã¡s
c ript
t ural
n ic
Ġmerc ad
ĠO axaca
Ġtol erancia
ed rez
d rÃ¡
ĠA B
Ġcri aturas
Ġrom pe
ĠH om
ĠV II
Ġestudi ando
Ġocup an
Ġver Ã¡n
ĠAmeric an
Ġofrecer le
Ġvis uales
Ġenv ÃŃos
Ġnie ga
ĠXV II
Ġh ep
Ġbusc aba
b rar
Ġfaci al
Ġdor ado
Ġactu alizada
ĠG est
E v
ĠFl ore
ĠhÃŃ br
Ġantio xid
Ġsub venciones
Ġmoch ila
ĠEst Ã¡n
l ib
Ġparro quia
emp lo
ĠI R
Ġo le
Ġangust ia
Ġocur ra
ec cione
Ġpil ares
Ġ: :
ent ir
Ġpers igue
ĠU p
Ġtra um
ĠAut om
Ġrig or
ĠV igo
ĠM ED
Ġmie dos
ĠP ach
ĠA di
' '
Ġhipot ec
Ġileg ales
V al
if a
ĠT R
ĠTen ÃŃa
O G
Ġoblig ada
ĠJ ar
Ġob reros
ĠIn sp
onaster io
or ros
ÃŃf icos
IC OS
Ġre ctor
ĠUnivers itaria
allo ween
Ġjuz gado
Ġvas os
ĠC aÃ±
an k
Ġprofun das
ers onal
ĠPas tor
Ġprecis Ã³
ĠT rituradora
ie z
Ġad vers
Ġc aca
s vel
Ġtom amos
Ġadelga zar
Ġlevant Ã³
Ġvir gen
ĠVat icano
rar ia
ĠIr landa
Ġ desal
v ic
TA M
ill on
Ġlat ina
ced or
Ġ7 6
Ġplante ado
ĠV era
ĠMet al
oro este
Ġcoloc ado
Ġreper torio
Ġmir adas
Ġemocion ante
C R
C P
ĠhÃ©roe s
Ġin defin
ĠBus iness
Ġdi ab
utr iciÃ³n
ĠR AM
el s
Ġcent rado
Ġcar dÃŃa
Ġext re
ĠCooper aciÃ³n
Ġobserv aciones
ĠM anten
ĠEst aciÃ³n
icios a
ĠhÃŃ gado
ĠHol anda
Ġtor o
Ġsusc ripciÃ³n
Ġcer Ã¡mica
Ġemple a
Ġpunt uaciÃ³n
Ġacus aciones
Ġrecon strucciÃ³n
Ġeleg idos
9 1
Ġl uce
ar s
Ġper c
Ġmi len
ĠE nd
Ġse duc
Ġnar rativa
ĠDesc argar
Ġyo ga
Ġnomb rar
Ġgar ganta
Ġgran o
Ġder rib
Ġhosp it
Ġult ima
iv ado
i w
Ġproduci endo
quier da
Ãģ S
ĠD ir
Ġsurt ido
Ġadelgaz amiento
Ġvi Ã±
Ġconte x
ces is
Ġhormig Ã³n
Ġa tar
Ġtra jo
ĠS cot
g ers
ĠS ci
D ec
it or
Ġ desar
Ġj azz
isp r
ĠPatr icia
Ġbrom a
ĠVI H
Ġval idez
Ġer rad
Ġdig na
Ġto ur
Ġespal das
Ġcart Ã³n
e svel
Ġcon oces
OR ES
Ġsub ido
Ġquer ida
ĠF ox
d esvel
2 000
ĠAy uda
Ġimpresion antes
Ġal uci
Ġdej arlo
Ġc aÃ±a
Ġrol lo
Ġafirm an
ĠBr uselas
Ġindemn izaciÃ³n
ĠUS D
Ġcomple tas
esp eci
Ġc iber
Ġcamp amento
Ġv ist
Ġcontra ct
Ġayud Ã³
Ġ0 4
Ġrem ol
Ġoch enta
Ġpas aje
im inar
abl ecer
ĠP aco
Ġllam as
Ġcar gado
Ġel og
ĠEu gen
vent ura
A F
om Ã©
ĠÃŃnd ices
Ġconve ncionales
Ġpon ÃŃa
un di
Ġorganiz adores
ĠV est
l f
Ġ desvel
ĠCorpor aciÃ³n
ific ando
Ġ {
Ġ9 6
ter s
Ġesc udo
Ġcont entos
Ġautomo vil
ĠautÃ³n oma
Ġdig est
ĠJard ÃŃn
Ġcier tamente
d ama
Ġcuer das
Ġprot ector
Ġamist ades
ge nos
ĠNi Ã±os
Ġaleg ro
Ġvay as
Ġl ecciÃ³n
Ġfun cione
Ġliqu idaciÃ³n
Ġ7 7
Ġprev istas
pro v
ĠAl ba
Ġvulner ables
ĠA nc
Ġins ectos
ĠUn iverso
Ġeg ip
Ġdesmo nt
Ġcart eles
Ġvol c
ill Ã³n
Ġexp uestos
Ġpese tas
Ã³g ico
ĠC S
Ġconsider arse
ĠD icho
al as
Ġconsid ere
z z
Ġcar nes
Ġfu Ã©
Ġv ient
Ġefic aces
Ġsomet ido
Ġmin era
cil la
Ġdebate s
Ġg am
t re
Ġemple ar
Ġrel aci
ech ar
Ġtem Ã¡ticas
lo v
ĠUN A
is ma
ĠC ursos
âĢĶ .
Ġcob ran
R ev
ĠEsp acio
ifica nte
Ġanc est
ĠjurÃŃ dicas
ĠaÃ© rea
erci b
Ġresp ecta
ĠPromo ciÃ³n
ĠindÃŃge na
Ġcrim inales
ĠQuint ana
ĠCrist Ã³bal
Ġins ign
Ġconj untos
Ġsex ta
Ġcot izaciÃ³n
Ġprovoc ando
Ġvale nci
ier ten
Ġexpedi ciÃ³n
Ġprot est
Ġapet ece
Ġembaj ador
Ġalim entar
Ġal moh
Ġgener e
Ġaplic ando
Ġin se
Ġf Ã©r
ĠR ol
Ġmentir as
ĠCerv antes
Ġrenov ables
Ġbusc ado
Ġignor ancia
Ġac a
Ġestudi a
Ġel ecto
ul ia
Ġest ip
Ġquer Ã©is
Ġoc Ã©ano
Ġte Ã³rico
I s
Ġcorresp onda
Ġpreced entes
Ġ16 0
Ġayude n
AL L
Ġpase ar
Ġprop Ã³sitos
Ġelim ina
Ġal iento
ĠF M
ĠTime s
Ġcardio vas
g ement
Ġtrans forma
Ġrem ate
ĠInform Ã¡tica
ĠvÃ¡l v
Ġev al
rag ona
Ġaccion istas
Ġw h
Ġco cin
Ġ9 3
Ġpropagan da
Ġdue le
Ġinteres adas
ĠTelev isiÃ³n
ĠC ambi
Ġ7 3
ĠArgent ino
p ues
Ġemit ido
F orm
Ġcerc anÃŃa
AN O
d ula
D ios
g i
Ġmanten ga
Ġanal istas
Ġpresid entes
ace n
Ġsu ceso
Ġampl ios
Ġmultim edia
Ġgest iones
Ġpersonal izar
Ġrep ite
Ġ dent
Ġevide nci
ĠMus ic
ĠA sp
Ġponer le
or it
Ġpreserv ar
Ġf lash
Ġinspir ado
Ġconven ios
Ġo j
Ġcu art
Ġasign aciÃ³n
Ġfil me
ĠPase o
ĠV ig
âĢľ .
ĠQu ÃŃm
ĠJ ord
19 99
D et
ĠPu ig
Ġconsol idaciÃ³n
ĠClas e
ab ilizaciÃ³n
Ġb alle
Ġb ono
ĠR um
ĠO fer
f ield
aliz amos
uro c
Ġdar ÃŃa
Ġejer ce
Ġmonum ento
B LE
Ġo las
ĠW all
Ġconces ion
cis amente
ĠMil itar
ĠI MP
ĠIntern acionales
Ã ¬
Ġagu jero
ĠDeleg aciÃ³n
Ġescrib o
Ġaprovech amiento
ĠT uc
Ġtar ta
Ġterre moto
j Ã³n
Ġmac ro
Ġv ice
ĠTot al
ĠAl t
ĠPresup uesto
Ġfal sos
Ġlev anta
Ġcabec era
ĠBusc ar
Ġinvert ido
ĠM ez
Ġutiliz Ã³
Ġint im
v ista
âĢĵ ,
D UC
Ġte soro
Ġestim ular
Ġpres um
ĠMir anda
Ġpelic ula
Ġta xi
Ġloc alizar
Ġcon sp
P e
Ġdesp rende
Ġindi rect
ĠAcces orios
c ual
ĠI B
Ġ12 5
ĠProst itutas
rig a
Ġre embol
im ental
Ġhuel las
Ġartes anal
RE C
ĠV ÃŃa
ro vi
s ÃŃ
Ġavanz ando
Ãº b
ĠN at
I gu
Ġer rÃ³n
Ġun irse
Ġestup endo
Ġesf era
pe nsa
se y
Ġperu ana
Ġabre n
Ġimp acta
Ġ8 8
ĠBar ran
Ġaplic ables
ation s
rend a
Ġcomenz ando
Ġam as
Ġrecuer dan
Ġch iste
bue no
Ġte sor
ĠÐ ¿
Ġhac erme
Ġpose er
ĠAm igos
Ġ7 4
t eca
ĠAnd re
act eres
ĠPuede n
ĠPlan e
Ġayud ando
Ġreporta je
gr up
ĠJa Ã©n
Ġrep as
one das
Ġdisc ursos
Ġveget aciÃ³n
ĠE co
Ġbols illos
Ġc erv
Ġproduct iva
ĠC AS
ĠvÃ¡l ido
Ġcast ig
ĠN Ãº
Ġest emos
Ġpsic olÃ³gico
Ġtom as
Ġab an
Ġbar atas
Ã©r t
Ġproduci da
Ġdom ingos
Ġn Ã³m
ĠE MP
Ġcontinu arÃ¡
M edi
Ġprivile gio
ĠB and
ĠAdminist rativo
ĠFil osofÃŃa
Ġ( "
f ar
Ġal tar
ĠRe ad
ĠGuz mÃ¡n
Ġrecep tor
IN O
7 00
Ġesc ar
Ġco br
Ot ros
gra cias
Ġinv ito
Ġexperim ento
ĠD am
ut in
Ġvar ones
Ġespecial idades
ie gos
ul ando
Ġliber ar
Ġvent il
Ġresp irar
Ġcansan cio
ta ntes
Ġcol esterol
ot ores
ĠC ob
la go
Ġart ÃŃsticas
V ER
Ġar an
iz ante
ĠÃ© t
Ġilum in
Ġorg Ã¡nica
Ġinform ativo
TE L
Ġrest antes
T AR
ĠLa guna
Ġinflam aciÃ³n
Ġsin f
Ġexpres ado
Ġmand ÃŃb
Ġdomin ante
Ġdependi ente
ĠaÃ© reo
Ġimp actos
ĠDep art
Encuent ra
sc he
Ġinte ndente
Ġdig amos
Ġsusp ender
ag n
Ġvengan za
ĠcientÃŃf icas
Ġestup enda
Ġdestin adas
Ġrev oc
ĠR ad
Ġrent able
Ġl entes
D isf
C ES
Ġce s
Ġgest os
ĠM aj
Ġ0 3
tor ios
ĠEstudi antes
l ada
Ġequip ado
ĠS ta
Ġtra jes
Ġpen ÃŃnsula
Ġrecop il
Ġenam orado
T oda
L ib
Ġbar ata
ĠG U
Ġtempor ales
Ġtermin ales
Ġdiput ada
Ġcompens aciÃ³n
p ress
ĠSos ten
ĠCamp os
Ġcomb at
Ġor questa
ĠN acionales
ef a
Ġpoderos os
Ġt int
ĠNego cios
Ġresc at
Ġmodif ica
Ġ7 1
ĠPlata forma
ie w
Ġhu ir
Ġetc Ã©tera
Ġestruc tural
ĠC ale
Ġman uales
Ġpres iones
ĠhistÃ³r icas
Ġconstr uye
ĠEcon Ã³mico
Ġexter nas
Ġcal cio
Ġat entos
Ġextra Ã±os
andal ias
Ġofens iva
ĠProduc to
P ese
Ġasc ensor
Ġrodil las
ĠmÃ© rito
amb ien
Ġdelicios a
orta nte
Ġmagn ÃŃfica
Ġsencil lamente
Ġadmit ir
ĠsÃ³l idos
ĠL ucÃŃa
Ġentend emos
ĠÃģ vila
am an
ndo le
ĠmÃ¡x imos
Ġab uelos
Ġcapital ista
ĠV idal
Ġimpec able
ab ras
Ġaument Ã³
Ġcolon ial
Ġf rÃŃ
Ġexplo tar
ĠV ista
Ġor illa
ĠL ab
Ġatra viesa
Ġpara ÃŃso
ĠD Ã©
ĠcÃ¡l culos
ĠC av
ĠMont errey
ih ua
ĠM ec
Ġparticip e
ĠA un
Ġrel le
Ġmascul ina
Ġcement erio
Ġextranj eras
ĠC AP
Ġmotoci c
Ġexpres idente
di versidad
Ġ8 2
Ġasp ir
Ġaprov echa
ĠJ ordi
re no
Ġcop iar
ĠJal isco
ĠL ara
Ġsal ÃŃa
Ġcontro la
Ġprese nci
Ġalter aciÃ³n
p x
200 3
Ġpertin entes
ĠCar m
ell er
ĠS Ã©
ĠB eb
Par ece
Ġespect ro
ĠMo ntes
T T
N i
Ġcuad rado
Ġcens ura
Ġch ime
Pod emos
Ġpreocupe s
I E
ĠInvestig aciones
ĠA la
Ã©l ix
Ġsecund ario
ĠR aci
stitu cional
Ġr osas
ĠHo gar
Ġpermit irÃ¡n
Ġil us
Ġqued Ã©
Ġarm on
Ġutil ice
ĠG EN
Ġconsider ablemente
Ġ0 5
Ġaplic an
Ġz ar
ĠÃ³pt ica
Ġoblig atoria
ing er
ĠV iernes
ĠJeho vÃ¡
Ġmat riz
Ġinf ect
Ġmad urez
ad el
x a
Ġsient an
Ġvol vieron
ĠcadÃ¡ ver
ul antes
ĠV in
ĠCl iente
t witter
Ñģ ÑĤ
Ġper j
Ġesper anzas
Ġescuch ando
Ġmis ion
ic ket
ĠSte ve
re ste
Ġcre ados
in da
ĠA ran
Ġpon gan
Ġorden ado
ci encia
ĠS itu
Ġprior idades
d eos
Ġimport aciÃ³n
Ġhum il
an cÃŃa
ĠI mag
Ġgan ancia
t oria
or r
Ġp ay
Ġalcal desa
ĠdÃ©b iles
pl ona
ĠCh ap
Ġv ej
Ġar ru
ĠAnd alu
ĠP O
it ed
ĠPres s
Ġfin alizÃ³
Ġse amos
c ura
Ġmater na
a ut
ĠP il
Ġmedi taciÃ³n
Ġt uya
Ġnomb ramiento
rocar ril
Ġse ver
ĠR EC
Ġilust raciones
ĠPol ÃŃticas
ĠProfes or
Ġincap az
Ġaverigu ar
um ento
Ġgrue so
og rÃ¡ficos
Ġ198 5
ĠR O
Ġcircu itos
Ġagr icultores
ĠPep e
ĠId eal
Ġinm igraciÃ³n
ĠMar y
M T
Ġm ap
Ġcompart imos
ĠperÃŃ odos
Ġb ut
ĠÂ¡ Â¡
EL A
Ġameric anos
ĠIma gen
Ġv aci
Ġeleg ida
E FE
Ġexige n
Ġbenefici arios
Ġsal arial
Ãĳ O
Ġpast illas
ĠA V
Ġad sc
ĠÃĵ scar
Ġesp uma
Ġapunt an
ĠOccid ente
ĠC ortes
Ġdig it
P ress
Ġmin as
ĠC ra
Ġvincul aciÃ³n
Ġpres unto
Ġm Ãĥ
Ġc itar
Ġinfl uencias
te x
Ġayudar le
Ġint ra
b all
Ġvaria ntes
ĠC amil
S p
Ġcar acteres
ĠcÃ³m odos
Ġgran os
cil ler
Ġco pas
Ġbe s
Ġf ri
e sci
Ġindep endent
ĠYo utube
Ġdur Ã³
Ġr ÃŃg
Ġfre e
Ġsu cur
la v
Ġfich eros
ĠP on
Ġal erg
Ġhist orial
Ãº d
Ġel enco
Ġdese amos
usc o
ĠAlcal Ã¡
Ġrecib o
ĠE dif
re f
Ġcontund ente
ia ntes
Ġ| --
ient ales
or ci
Ġmediev al
Ġleg alidad
int on
Ġprevent iva
t erapia
Ġfarm acia
B R
Ġg entes
Ġpodr ÃŃas
Ġad orn
Ġos ci
ĠBro wn
Ġextra Ã±
Ġescas ez
ivers idad
Ġdesarrollar Ã¡
Ġatra cciones
Ġconqu istar
Ġproteg ido
Ġju gos
Ġencar go
Ġinconven ientes
on ados
Ġal mend
Ġvar ÃŃa
at ilidad
Ġosc uros
Ġac ud
Ġparticip ante
Ġpot able
ĠCl ara
Ġcons ecutivo
Ġb iblio
Ġterm ino
Ġnev era
H z
ĠEm er
y ac
on ada
Ġo ve
TE C
Ġvol Ãºmenes
Ġpag ando
Ġal iado
Ġdin Ã¡mico
ruc e
Ġorigin almente
ĠsatÃ©l ite
ĠB reta
Ġinv asiÃ³n
Ġaliv iar
bl aciÃ³n
ht ml
Ġese ncialmente
Ġnar ra
ĠT oy
Tra baj
ĠclÃŃn icas
H ome
Ġprev isiÃ³n
Ġaspira ntes
Ġabsor ciÃ³n
Ġexitos o
ĠquiÃ©n e
ĠAudi o
Ġcoci nas
s emb
ĠquiÃ©ne s
ĠrÃ¡p idas
pre cio
Ġarre gl
ĠPar is
Ã³cra tas
Ġt ost
ĠPre cios
Ġacerc Ã³
Ġact Ãºan
M AS
Ġ" Â¿
ĠDesc ubre
âĤ¬ .
Ġ0 6
igu iente
Prim ero
iz antes
Ġa no
Ġvient re
Ġ( +
em o
Ġcompart ida
ĠIgu almente
ĠBa ut
Ġconm emor
ĠD ur
Ġar ra
ĠÃ³pt imo
Ġper dieron
Ġan oche
Ġsurg ir
ĠCrist iano
Ġded icÃ³
Ġresist ir
ĠP ese
Ġoportun o
Ġrecuer d
Ġescrit ora
ĠJorn adas
Ġf o
Ġ198 8
cel ente
Ġmonum entos
Ġimp unidad
ĠMate o
Ġllev ada
Ġï Ĥ
Ġset enta
di tos
Ġmilag ro
Ã¡ frica
Ġreal idades
Ġauxil iar
Ġconv icciÃ³n
Ġpiel e
Ġsepar ados
Ġgust ar
s olo
ven iles
Ġmuch acho
Ġpol i
Ġadapt ado
Ġne olib
Ġgra f
Ġcer do
Ġpiele s
Ġ8 6
g icos
lic k
ĠB ase
Ġinter rup
Ġmencion ada
eci endo
ĠE FE
Ġanterior idad
ĠU U
ĠPre gunt
Ġpue ntes
Ġec olÃ³gica
Ġsubray Ã³
e ne
Ġpresent adas
id entemente
Ġ dama
Ġmil las
Ġreflej an
Ġbaj ada
Cont in
C l
ci das
ed os
ĠT y
oc ol
ĠCor rea
Ġdepende n
ĠJun ior
ĠEsper amos
ĠP is
Ġb ach
ĠChia pas
Ġp ones
ĠEv angelio
ĠNe ws
Ġpr ision
ur recciÃ³n
Ġlegisl adores
ĠBar Ã§a
Ġrecuerd e
Ġestudi ado
Ġm uel
Ġprecios as
ĠhÃ¡b iles
ĠP erman
Ġsub mar
ĠS Ã¡b
Ġc ielos
Ġdesp ej
TIV O
Ġrig uros
Ġarm ados
Ġdescon f
Ð ²
nd ez
Ġrom Ã¡ntica
ĠG am
S L
ĠL ong
Ġto x
Ġpase s
Ġglob ales
p i
Ġcaball ero
Ġcompart iendo
Ġmol Ã©
Ġl ech
ĠPro f
ĠIndep endencia
dic e
Ġfidel idad
Ġgarant iz
Ġmil ÃŃmetros
Ġexces ivo
Ġemerg entes
Ġpin cel
Ġrel ativos
AR D
Ġvolunt aria
Ġceleb raciones
il ita
Ġestim ado
Ġpelic ulas
ĠLa v
Ġder rum
Ġfront er
Ġil ÃŃci
Ġdesp ierta
ĠJo h
Ġconsist ente
Ġcre aciones
ĠU c
Ġacad emia
Ġcorpor ativa
Ġac ta
Ġ198 6
ĠF Ã¡
Ġver ificaciÃ³n
ĠAl icia
ĠP V
Ġinform Ã¡tico
aci ente
Ġdon aciÃ³n
g aba
ĠCol l
udi os
Ġinquiet udes
ch ester
Ġ9 2
ĠIb ero
ĠSo fÃŃa
Ġre tenciÃ³n
Ġre el
Ġs ierra
Ġro jas
ĠInt roducciÃ³n
Ġcatal anes
Ġseguir Ã¡n
terrÃ¡n ea
Ġch aqueta
esc o
Ġdetall Ã³
ĠNet flix
Ġretra to
Ġcalcul a
Ġinstitu cionales
or ce
s ub
D Ã³nde
Ġdeber ÃŃas
uer tas
Ġrad ic
Ġfre no
Ġregal ar
ĠA k
D is
Ġconsol id
Ġin min
ĠD y
Ã£ o
Ġab o
Ġrad ica
Ġviol aciones
ĠAnd rea
Ġas ciende
ĠP L
Ġcos tÃ³
Ġmet ido
Ġrecur re
Ġaci erto
ĠBreta Ã±a
ĠP RES
ĠCal i
â Ħ¢
omet rÃŃa
ĠðŁĻ Ĥ
Ġhar Ã©
Ġinn umer
Ġlabor atorios
ĠCom is
ĠComun idades
ĠT ienda
Ġsu dor
Ġvincul ado
Ġb ÃŃbl
Ġpec ados
C asa
Ġra bia
Ġc igar
ĠD ej
ĠPol onia
Ġc eder
Ġbo x
Ġtrabaj e
e i
Ġacostumbr ados
Ġ197 0
Ġ dados
ĠTelÃ©f ono
Ġeconom ÃŃas
Ġalm acÃ©n
ig ual
ĠLu gar
Ġpes ada
ob ia
ĠÃ¡ cidos
ĠPerio di
Ġso is
Ġtor neos
Ġl ecciones
Ġreci claje
Ġtro zos
ĠHist Ã³rico
Ġb er
stru ir
Ġlig ar
P ort
Ġtom arse
CI OS
Ġjugue te
ĠJ ud
Ġextra ord
ĠcÃ¡l ido
ĠTrib ut
ue n
Ġtitular idad
Ġap el
Ġapoy ado
is imo
Ġrit mos
ern et
ĠHo use
Ġestan dar
ach ing
Ġhosp ed
Ġbomb eros
ĠsÃ©pt imo
ĠN atal
Ġaf ecto
Ġdeb a
a go
Ã³ stico
a hora
Ġrit ual
iÃ± ones
Ġconvirt iÃ©ndose
ĠPa ulo
ĠJ ones
Ġna ves
abiliz ar
Ġnaci dos
Ġperf ectos
Ġapar ente
ĠH ost
Ġaje no
p m
ĠDisp onible
bo ard
Ġsu bl
Ġexclus ivos
Ġa ir
Ġest ere
Esp er
Ġtrad ucir
Ġval ioso
ĠB i
Ġfal da
n ales
Ġvest uario
Ġresult aron
Ġconect ividad
Ġsu d
Ġcar d
Ġrad iaciÃ³n
Ġc Ã¡
iot erapia
ĠVer dad
Ġil imit
rim ido
Ġcur ric
gu er
e semb
n ie
ĠP uerta
Ġ ip
Ġa is
d esemb
ĠacompaÃ± an
Ġ ondas
ast ro
Ġtend rÃŃan
Ġmal estar
Ġres idencial
Ġt acto
Ġr icas
Ġt ÃŃa
ĠbÃºsque das
d ÃŃ
Ġnar raciÃ³n
Ġsu til
Ġresal tÃ³
Ġaument an
Ġat rop
Ġdefens ores
Ġqu ie
ha i
", "
in amente
to oth
ĠMem oria
Ġllev arlo
et os
Ġab domin
Ġsem illa
Le y
ĠfÃŃs icamente
Ġg all
ur ios
ĠÃŃ ndole
Ġmejor amiento
ĠScho ol
ĠU nos
Ã©m on
Ġred onda
Ġrecom pensa
ĠQu ien
Ġsimp at
Ġcint urÃ³n
Ġpreside nciales
ĠP unto
ĠDesc ripciÃ³n
Ġcuidados amente
Ġsem i
ĠH it
Ġmor ales
z y
olÃ³g icamente
ĠL ore
ĠPas o
Ġcamione ta
Ġ desemb
Ġactiv amente
ite nci
Ġtable t
Ġfres cos
m entaciÃ³n
Ġpeligros os
Ġvend edores
d ones
Ġdesp ido
Ġgu iar
Ġam ateur
C S
Ġdi era
ĠG alle
ur gue
Ġman ufact
Ġtra emos
Ġdescar gas
Ġnorte americana
Ġprefer ido
ĠChamp ions
Ġterrest re
Ġcrist ales
Ġcint as
Ġhaber lo
Ġpres a
Ġcon cede
ĠDeclar aciÃ³n
Ġperju icios
Ġlle guÃ©
Ġreci piente
ĠÃ³pt ima
Ġvar iados
Ġident ifica
Ġaplic ada
Ġin us
ĠTam aÃ±o
onex iÃ³n
cas a
x is
Ġint ol
Ġcas ero
Ġvia ja
G ar
g ÃŃa
la zar
ue bl
alt ad
ĠR edes
Ġleer lo
Ġabsor b
Ġalqu ilar
Ġacord ado
D est
Ġpl ug
il iar
? "
Ġaten diendo
Ġh erv
Ġasi Ã¡tico
al go
ĠaÃ±ad imos
unt u
Ġacus aciÃ³n
Ġlimit aciÃ³n
ĠMore na
Ġfom ento
Ġtem e
Ġexcur siÃ³n
TI L
Ġque mar
Ġgab inete
200 5
ĠV ER
s quÃŃ
ĠD eja
Ġveci na
Ġpromo cionar
ul osa
Ġtra mos
Ġsel va
ib a
Ġinconven iente
Ġr Ã©
Ġdirect ivo
Ġs art
Ġb uroc
Ġmerc ancÃŃa
Ġcan sado
ĠLe o
Ġlej ano
Ġo ÃŃdos
c adas
ĠdiscÃŃp ulos
Ġelim inado
Ġcat edral
g s
y unt
ÃŃn guez
ĠT ap
g rÃ¡fico
Ġrecibir Ã¡n
Ġa uge
Ġhel icÃ³
Ġin j
Ġant elaciÃ³n
ij Ã³n
Ġcompet idores
Ġ ~
Ġaf ro
Ġmic rÃ³f
u res
Ġresuel to
Ġreduci da
Ġlibert ades
Ġacar ici
ran ia
Ġvel as
cu a
Ġoper an
Ġgig antes
Ġ enunci
Ġpubl icadas
r r
Ġa erop
Ġgen u
Ġg a
ĠBe ach
Ġ dero
Ġsol as
Ġprim or
ĠGobern aciÃ³n
Ġsocial ismo
Ġs antos
Ġdesplie gue
Ġing le
ĠC ho
Ġdi alo
Ġlib ras
ĠConf ederaciÃ³n
f ort
Ġbille te
ĠâĢľ Â¡
Ġagu ant
Ġ198 7
Ġsens ores
Ġco ch
Ġsup onen
Ġcoincide n
Ġsignific ativamente
Ġr isas
Ġest ro
Ġinm ort
e squÃŃ
Ġhel ado
Ãºst ica
oce ncia
ĠE ns
I nf
ue ta
Ġrel ieve
ĠautÃ³n omo
Ġpe ga
m Ã¡tica
H E
Ġcomput adoras
si empre
p rim
m ol
Ġrad icales
h y
Ġalg orit
Ġvolv iendo
b ita
Ġp y
Ġaf Ã¡n
Ġco co
ĠD or
C T
Ġentiende n
Ġmantend rÃ¡
P AR
Ġlament ablemente
Ġdesactiv ados
ĠSim Ã³n
Ġpre ten
Ġg otas
e sis
Ġhier bas
Ġan at
ee k
Ġdem onios
Ã¡ng ulo
Ġpregunt ado
Ġaport ando
Ġus amos
Ġencar cel
ĠelectrodomÃ©st icos
c ap
Ġvulner abilidad
Ġsol dado
I TA
p ret
ĠCont actos
Ġrec ar
Ġad her
un ning
Ġfib ras
Ġev identemente
Ġbu que
P ol
Ġconvoc ado
ĠEl Ã©ctr
nos a
Ġcur s
Ġinv ent
ĠBale ares
ĠTerc era
ĠmuÃ± eca
com un
Ġmaravil las
Ġsur f
ĠD if
ĠB anda
ĠR oca
Ġge ogrÃ¡fica
Ġcom ando
Ġdivul gaciÃ³n
ĠCh arles
Ġch is
Ġcontra t
st ar
Ġsemif inales
s blo
ĠT ienes
ĠIra k
Ġcontra tado
dib ilidad
i arse
e ud
Ġcomun iÃ³n
Ã³r icas
ns ible
Ġconsol idar
i Ãĥ
Ġmedi ano
Ġbat allas
ĠMar ca
Ġnov enta
Ġtr il
Ġqu in
Ġal dea
Ġinsc ripciones
Ġun ico
Ġm ana
Ġev angel
ĠCiudad ana
ĠPat ria
Ġaf ortun
go via
Ġsum ado
Ġ9 7
Ġcomple jas
erm at
ien a
rib les
Ġju icios
Ġobt ienen
Ġm itos
Ġme ga
Ġec olÃ³gico
d eo
Ġpr osp
A Y
ir io
ĠS mart
n um
Ġpint ado
Ġhab rÃ¡n
Ġtir os
Ġefici entes
Ġmar x
Ġespeci alizadas
n re
Ġres oluciones
Ġincons ciente
Ġval iente
Ġ8 7
ĠIntel igencia
Ġpro d
g mail
Ġr usos
ip as
Ġabsur do
Ġsal m
ĠbaÃ± era
s ab
Ġw ifi
I ZA
Ġinfin ito
Ġconoc ÃŃ
Ġso vi
Ġensal ada
ur y
Ġin cont
e nm
Ġmas ivo
Ġm ero
Ġpar rilla
Ġm igraciÃ³n
ĠCora zÃ³n
Ġap lique
ĠaÃ±ad iendo
Ġcusto dia
V EN
Ġproced encia
omp aÃ±
Ġsepar ar
Ġconect ados
C er
Ġ echa
Ġjur ispr
Ġsep an
Ġprofesional idad
Ġanim ados
Ġorient ado
aci al
Ġdiv ino
Ġmo j
Ġpat ente
Ġprov echo
ĠIndep endiente
Ġrep ent
Ġplan ificar
Ġelabor ados
Ġsum Ã³
ada jo
Ġconf ide
Ġrom Ã¡ntico
Ġcer ra
Ġus arlo
Algun as
Ġ esquÃŃ
ĠEcon Ã³mica
Ġnarcot rÃ¡fico
ĠPol it
ĠEsper anza
Ġvincul adas
st r
ĠSe a
Ġap ps
Ġfan Ã¡ticos
Ġvari ada
Ġtrabaj adora
OR A
Ġesp ar
Ġn ubl
Ġunif orm
t emp
Ġap las
Ġexten so
Ġcente nar
Ġcontrol ado
ĠAbog ados
Ġman eja
Ġdomin ar
Ġvideoj uego
Ġavanz adas
S M
ĠA QU
ĠT ÃŃtulo
Ġdesp edir
ĠLeon ardo
ĠPro cedi
dale na
Ġv il
ĠE usk
Ġponer te
Ġinoc ente
ique s
ĠR onal
Ġa ires
Ġreal ista
Ġvuel vo
Ġfij ado
Ġdemos traciÃ³n
ĠD NI
D o
Ġpr isa
ĠMin i
Ġfundam entos
Ġcomp rÃ©
ĠO pt
Ġcomun itaria
Ġsufr iendo
ĠOlÃŃmp icos
Ġsi nte
Ġac ent
Ġadm iraciÃ³n
ĠmÃ© dicas
Ġaloj amientos
Ġla n
Ġindic ada
Ġproduct ora
ĠAlb acete
ect ivo
Ġtrans vers
ĠCÃ¡ ceres
Ġlesb ianas
Ġcaus Ã³
Ġestric tamente
Ġest il
Ġfil ial
s ist
Ġt v
Ġcere ales
Ã³n ima
c lar
Ġmilit antes
Ġver sos
Ġ7 9
du zcan
ĠPo nte
Ġmat ices
ap iÃ©
Ġaje na
cul ares
Ġneces ites
r adora
Ġcont abilidad
U t
Ġtabl ero
cul as
Ġacerc ar
ĠM Ã©rida
Ġpeligros a
Ġgen io
Ġconten ida
ĠLin k
Ġllam amos
Ã³g ica
Ġconf undir
Ġpot entes
Ġocas ion
Ġavanz ados
ĠAs i
is Ã©s
ri x
ĠU d
Ġpro duzca
Ġin ca
Ġvis ibles
ĠcÃ³m ic
ĠI ber
ir ÃŃa
z ano
ĠC orn
Ġmusul manes
Ġreclam aciÃ³n
Ġmort al
d ude
Ġtrabaj aba
Ġdet uvo
Ġpo etas
ns on
ĠVal ores
Ġapoy os
e sblo
ĠBen ito
Ġ8 3
d esblo
Ġsub jet
200 4
Ġcr ip
ern as
Ġpil as
ĠAlim entaciÃ³n
ĠsÃ¡b ados
ĠUsu arios
ĠC abe
Ġreun irse
al th
Ġan ualmente
Ġase ver
Ġapre cia
Ġdi etas
at ed
ĠF Ã©lix
ĠM oder
Ġdev ast
Ġse da
Ġprofesor ado
Ġfal tas
Ġbo te
ĠD onde
Ġ dude
Ġper di
Ġenvid ia
Ġtener lo
Ã©sp ed
ĠSt ore
it ivos
Ġso Ã±ar
ĠChrist ian
Ġespir ituales
ĠmÃ¡g ica
T IS
ĠCo p
ĠAgu ilar
ĠI M
ĠY uc
rand e
Ġinnumer ables
Ġgratu itas
tar ias
Ġcar ece
Ġimpres iones
Ġm p
Ġregist rada
Ġo ye
Ġcol ap
ĠLu ci
Ġte nsiones
Ġpodr ia
lo go
adajo z
ed ro
ces iÃ³n
Ġcae n
Ġsent arse
dil la
Ġsobre v
ert uras
Ġent rando
Ġrecib idos
Ġinv isible
ĠA ustria
ĠAnd e
Ġhist or
Ġrefer irse
Ġvar ÃŃan
Ġdispar os
ct ora
Ġla na
Ġbaj Ã³
r ina
Ġ198 2
ust e
Ġirregular idades
Ġconoz ca
Ġregres Ã³
ĠComun icaciones
Ġpasap orte
Ġparro qu
Ġrepar aciones
C laro
F O
Ġam ado
Ġsol em
Ġejecut ivos
ĠM IN
ĠBo letÃŃn
Ġ echo
Ġdesn udo
g ase
Ġley endas
ï¼ Į
Ġestuv imos
or por
Ġvisit Ã³
Ġrepresent ado
ĠMol ino
ina gre
americ anas
ĠM ara
Ġater riz
y m
Ġresc atar
Ġrecol ecciÃ³n
Ġsart Ã©n
Ġasesin atos
Ġven go
ĠÃ¡n gel
Ġop uesto
em ano
ras co
Ġan ar
ĠD IS
av a
Ġnatur almente
Ġadopt ado
Ġmir Ã³
ĠNÃº Ã±ez
Ġderro tar
Bar celona
ĠCons ulta
u ten
ĠNob el
Ġ8 9
Ġdetall ado
ich os
ĠH abl
H ist
Ġemo cionales
ĠA lo
Ġfutbol istas
ĠDol ores
Ġtr uco
Ġ8 1
ici das
enc Ã©
ÃŃ qu
Ġest ancias
ique n
?? ??
Ġproce sar
Ġexcep ciones
Ġindi fer
ci Ãĥ
Ġmar ino
Ġregist raron
Ġcuch illo
Ġpsic olÃ³gica
Ġwhat sapp
Ġpel i
Ġpres ion
C AR
Ġpien sas
Ġacus ados
Ġra zas
ĠE ne
Ġiny ecciÃ³n
Ã©nd um
qu iÃ©n
ENT ES
n ab
Ġabr irÃ¡
Ġinnov adoras
= "
Ġtraslad ar
Ġcri atura
ĠP rado
Ġdestac ando
ĠZap atero
ch er
Ġdel icado
Ġadm ira
ot eca
Ġp c
quier an
Ġllev aban
Ġsol tar
Ġpreocup ado
Ġcompart iÃ³
Ġm erm
Ġplante amiento
b ert
Ġgran ito
Ġcomplem entar
Ġconoci endo
ĠMic ro
Ġlar g
Ġconv oca
Ġ desblo
b on
Ġpriv at
Ġrecon cil
Ġfascin ante
ĠIgual dad
Ġmar ina
ĠM it
Ġexces iva
um p
i jos
Ġun an
ĠBol ivar
A G
Ġch ip
T EN
Ġla c
Ġsupermerc ados
Ġrel ativas
Ġconci enci
Ġfra cciÃ³n
Ġ198 4
ĠestÃ¡ is
Ġcre ÃŃ
ĠĠĠĠ ĠĠĠĠ
at t
olog y
V is
Ġpl ate
ĠC up
Ġsmartph ones
z gos
ĠB ell
ĠS oto
Ġg in
Ġdese ar
D ÃŃa
ĠCla udio
A Ãºn
Ġz omb
æ ľ
Ġr ond
Ġcruc ero
Ġpor ciÃ³n
quil er
Ġmicro ondas
Ġt Ã³p
ho to
ĠCla udia
Ġant emano
Ġrod aje
Ġconc ur
Ġh inc
te d
Ġimp ed
Ġ enz
h idra
ĠS how
Ġdef end
pe so
ĠQu ito
Ġge ografÃŃa
Ġap t
Ġasal to
Ġocur ren
Ġcamb ie
L leg
ĠT ac
Ġcomod idades
Ġconstr uyendo
Ġutiliz arse
ĠVal or
Ġtort ura
Ġpo zo
e Ã±a
Ġartic ulaciÃ³n
Ġap u
Ġrelaj aciÃ³n
ĠEn seÃ±
Ġt ÃŃm
ĠA Ã±ad
Ġtum ba
Ġdese ando
Ġplan cha
Ġext ras
Ġrom ano
Ġdisfrut ado
Ġacel erar
G e
Ġl lantas
Ġimp ug
Ġv ict
Ġorden ar
Ġproteg idos
u cido
Ġescult ura
Ġprev isiones
isp os
ĠWar s
Ġalej ado
ul lo
ICA CIÃĵN
ob le
Ġgubern amental
ci erto
Ġlimp ias
Ġvend rÃ¡
Ġfig uran
av ia
ĠC ost
ens os
m edi
P lan
Ġf ile
ĠJ U
Ġexpl ÃŃci
Ġsil ic
Ġc ueva
Ġaficion ado
Ġt ÃŃ
Ġm ueble
er ma
ĠAd idas
Ġconvier ta
Ġdese quilib
Ġdese nv
Ġrecaud aciÃ³n
ĠAp rov
ĠCar ab
ĠGer ardo
Ġcer rad
ĠAy er
ĠCo ordinaciÃ³n
Ġecos istema
ĠHuman idad
Ġlact ancia
L OS
Ġm aÃ±
ĠmÃ¡s cara
bo a
con f
Ġprest ado
Ã©t icamente
P V
AD R
ĠTrat ado
Ġhon gos
ĠOl imp
Ġestamp ado
ĠM AS
ect ora
Ġca ÃŃdas
Ġinnov adora
ur d
Ġentre gas
Ġrecog ido
Ġtap as
Ġpreju icios
ĠmÃºsc ulo
Ġ eb
Ġdesap ercib
b ella
Ġ( Â¿
iÃ© ramos
Ġve as
adr Ã³n
Ġale gr
ix a
ĠRec omend
qu ista
Ã Ĥ
ĠX III
Ġcandid ata
Ġded icadas
Ġmonstru o
Ġment alidad
Ġemp laz
ĠMetropolit ana
ĠO m
Desc ubre
Ġcomun itario
ĠÂ ´
Ġcicl ismo
Ġestructur ales
Ġinfin idad
d era
Ġdesconoci dos
ob ar
Ġarr ugas
ĠCer ro
Ġsomet idos
im ado
Ġ197 8
b rado
Ġmodif icado
B ajo
Ġsal ones
ĠEstat uto
Ġ9 4
Ġm ural
Ġcolon ias
ĠP leno
ĠNatur ales
Ġartif iciales
Ġali anzas
Ġremo to
... "
Ġdesh acer
Ġdenunci ado
Ġex acto
Ġespeci alizaciÃ³n
Ġcorre n
p ÃŃa
Ġenvi ados
Ã¡ndo las
Ġmis eria
ĠT ej
w ord
le ar
Ġtrabaj adoras
Ġcontrib uyen
Ġar mar
Ġfal las
Ġrat Ã³n
Ġedi tado
Ġrep it
Ġ1 01
Ġex cav
ĠPa ula
v eres
N ueva
Ġ \
Ġbrasile Ã±a
ĠPro gram
Ġtra zado
Ġlici taciÃ³n
Ġbre cha
rar i
udi r
ĠO d
Ġtrad uci
f ra
ĠvÃ¡l ida
if y
Ġso ja
Ġsuel ta
Ġprofun dos
Ġimplic ados
Ġrelig iones
Ġtra mp
ĠC AN
ĠP ien
Ġmi raba
Ġpier da
ĠcÃ¡p s
ENT OS
les s
- )
Ġrecib ida
cu ito
H an
Ġagrad ezco
ĠA Ã©
c et
Ġterra zas
Ġdibuj ar
Ġpel ear
ĠDom ÃŃnguez
Ġdisc usiones
j ate
Ġf rom
Ġequiv ale
ĠL ine
ĠJust o
Ġ197 6
ĠK it
Ġsemin ario
ĠAnde s
ĠL U
Ġconvirt iendo
Ġpost uras
Ġeleg antes
Ġteat ral
Ġmat a
Ġaban ico
Ġexcur siones
Ġsuper Ã³
Ġcr uci
Ġnos tal
Ġore jas
Ġcru cial
Ġf atal
Ġ ).
Ġcombust ibles
Ġch ic
h s
ĠIS BN
Ġinteract uar
Ġay untamientos
act ividad
Ġesp lend
ĠMargar ita
ac an
Ġrechaz ar
Ġprop onemos
k el
ĠC ot
ĠKir chner
Ġsol v
Ġdesn uda
Ġarran car
Ġtra ÃŃdo
ĠIN D
Ġosc uras
Ġlegisl ador
est aciÃ³n
Ġap to
Ġmec Ã¡nico
Ġast ur
! )
Ġacep tan
Ġcal do
ult ural
Ġb ack
Ġacces os
ĠS ra
Ġqu im
ĠP ose
e norm
Ġg ent
Ġchile nos
ĠFi estas
Ġjam Ã³n
Ġsing le
Ġprimor dial
Ġsal p
Ġcontra p
oner se
T res
Ġcompat ibles
Ġgan an
Ġirre sp
ĠBel Ã©n
ĠR Ã©gimen
ĠE P
Ġaco ge
ĠA per
Ġ enm
Ġperman entes
mer ce
ill ero
ÃŃst a
ĠLet ras
ĠProfes ionales
ve ncion
Ġacep tÃ³
Ã¡st ima
Ġcaptur ar
Ġdel ict
Ġpersonal izados
Ġdefine n
d ate
tra ciones
Ġprev ias
Ġa zo
ĠRepres ent
Ġimpul sado
Ġmencion adas
ĠCh an
aliz as
Ġadminist radores
ĠP it
Ġexperim entos
p in
Ġs ier
Ġestar ÃŃan
Ã© v
Ġaproxim ada
Ġabund ancia
Ġacces ibles
Ġfuncion ales
Ġabr iendo
Ġcon ced
g icas
ĠMar x
ĠhÃ¡b ito
Ġpas illo
Ġaprovech Ã³
om an
ĠMic ho
Ġhor rible
Ġjugar Ã¡
Ġaran cel
Ġproduct ivos
Ġal ert
ĠH alloween
Ġra m
Ġdo tar
Ġapar ecido
Ġm ueven
Ġh ort
ub le
Ġresist entes
Quer emos
Ġlo te
Ġcomprob ado
lam o
ĠÃ¡ng eles
ĠOp ciones
Ġclan dest
iz arse
Ġre ut
Ġdisfrut an
Ġ eh
Ġdecep cion
Ġro les
Ġem ite
ĠRaci ng
Ġn ad
ĠSer rano
ĠHen ry
Ġdef orm
ac tas
Ġt on
Ġmar e
ream ing
Ġcol gar
Ġcab ina
Ġve ne
ĠJack son
ĠV egas
Ġtut ela
Ġ ]
in st
Ġhom icidio
ĠCom pe
ĠH id
ĠfÃ¡rm acos
Ġconcej ales
t iene
ĠO x
ev in
Ġgan e
Ġf ur
Ġ enorm
g est
ÃŃrit us
Ġ Ù
Ġpresent aba
Ġcur ar
Ġg at
Ġmort ales
as ÃŃ
Ġrecl ut
Ġpro hÃŃ
Ġconseguir lo
Ġceleb ran
Ġm s
em s
er ry
Ġins erciÃ³n
Ġhabilit ado
ĠES PAÃĳ
Ġfabr ica
Ġprove er
ĠCh a
ĠBa hÃŃa
co pia
Ġse nder
Ġapoy an
ell ana
Ġlle ven
Ġin duc
S AN
Ġalber ga
ramient as
Ġanc ha
ĠfÃ³rm ulas
Ġciv iliz
Ġda Ã±ar
Ġor aciones
Ġrenov ado
Ġdistribu ir
gan cia
Ã©l ica
Ġcons ign
Ġencend ido
Ġrepresent aciones
Ġbar celona
Ġap od
r ie
Ġamar illa
ĠSus ana
Ġlo bo
ĠB ella
Ġhom olog
e nal
A t
Ġcal ificado
Con f
el d
Ġequivoc ado
ces as
ris as
ĠX II
Ġembara zadas
Ġevide ncias
Ġamort igu
te dra
Ġpar adas
TM L
Ġaliv io
ĠD ib
Ġtub os
Ġp echos
ĠD ese
b ano
ĠArm ada
Ġahor ros
S ant
la je
O h
Ġsignific ativos
Ġlo cos
ĠDel gado
Ġllev as
Ġol la
ĠCu ad
d adas
ĠV o
ĠV ietnam
Ġedi l
Ġy endo
Ġdivert idos
ĠBM W
Ġasist ieron
Ġcalent amiento
Ġparticip ando
Ġtit ulada
Ġtrop ical
ant erÃŃa
Ġescla vos
Ġsupermerc ado
E m
Ġser ios
Ġval ent
Ġcal ific
Ġresponde n
one ta
Ġc ra
Ġrec ort
Ġm acho
ĠConse jos
Ġnov ios
Ġpudi ese
Ġcontrar ia
ĠPro b
ĠMar vel
Ġinmobili ario
ĠO ct
Ġimport aciones
Ġf erm
Ġexpect ativa
Ġborde s
Ġconfi able
ĠD ata
Ġdi ablo
Ġob se
ĠMana ger
âĢ¦âĢ¦ âĢ¦âĢ¦
T h
Ġv ano
Ġcre dibilidad
Ġre ad
Ġagrad eciÃ³
Ġv itales
Ġcu t
Ġestat us
ĠHue sca
Ġcancel ar
Ġmov il
ihua hua
ĠEj erci
Ġest Ãºp
Ġub icar
ĠC ard
ĠWi Fi
Ġdemost rando
Ġprotocol os
Ġg alax
El la
Ġobserv ado
Ġru inas
s up
Ġrellen ar
icidad e
Ġpase n
r ona
Ġtramit aciÃ³n
Ġres idente
Ġdemas iada
Ġconc ert
m us
Ġpre deci
Ġafirm ado
Ġcol o
am ÃŃn
ĠDu que
ĠSem inario
Ġ !!
Ġmaltra to
E j
Ġreaf irm
Ã¡st ro
Ġdivert idas
Ġco dif
ĠGuadal upe
Ġdirig irse
ĠTer ra
Ġllam ando
Ġne utr
nd ice
Ġ' '
ana h
Ġinc ur
Ġtit ulo
Ġj oya
Ġreconoce n
Ġital ianos
ĠLa go
ĠES T
ĠN ick
ĠAutor idad
Ġto ques
ĠInstitu ciÃ³n
Ġ drÃ¡
uv imos
Ġcom iendo
Ġexig ente
Ġtel as
ÃŃf eros
Ġsincer amente
ĠSig lo
Ġest all
Ġinterpret aciones
ĠArm adas
Ġrevel aciÃ³n
nci oso
Ġmuer ta
ĠA da
ĠMat t
B l
je n
Ġacces ibilidad
ĠDirect ora
Ã¡rs elo
Ġtom adas
i ad
ĠEqu ipos
pl ic
Ġincid entes
Ġdesc rito
Ġc una
seg Ãºn
Ġvari adas
Ġinme nso
Ġdi e
Ġtor res
Ġpl uma
Ġyo utube
Ġagu antar
Ġfrag mentos
ĠS Ã¡
Ġsosp echa
re te
ĠEduc ativa
Ġimpres ora
Ġinsp ira
Ġtr ono
Ġex h
ĠPam plona
ĠJul iÃ¡n
ĠCol ecciÃ³n
er ias
Ġmat ernidad
Ġv inagre
ĠRe almente
ĠH ill
ĠObserv atorio
Ġcat Ã³licos
Ġvas co
ĠM S
A f
ol f
ol s
ol in
ĠAre na
. (
ĠWord Press
Ġofreci dos
Ġjust ificaciÃ³n
Ġtoc ando
it utos
Ġfer rovi
ĠclÃ¡s icas
FOR MA
icidade s
rig or
dem as
Ġinc ondi
am par
Ġpodr Ã©is
Ġmanip ular
ap aci
ĠMe nor
D oc
Ġapar ezca
Ġgrem io
ĠlÃ¡ mpara
ĠSud Ã¡frica
vo ces
Ãį N
Ġge nes
Ġtan que
ĠAl guien
c ones
C a
ĠCr Ã©dito
Ġreduci endo
Ġcon ceder
ĠCol onia
d edi
Ġtrae n
ater ales
ĠkilÃ³m etro
ĠSt an
Ġquer ia
Ġhon est
v amos
Ġadelant ado
Ø ±
Ġpantal Ã³n
Ġalt itud
": "
Se gu
ed uc
ĠP ra
Ġcompet entes
ĠOp in
ĠLeg al
Ġjard in
Ġreserv ado
Ġj un
ĠV oy
ell y
R o
Ġarre st
and y
Ġp it
Ġacostumb rado
ĠExter ior
ĠS ede
Ġexpul siÃ³n
Ġtelevis or
Ġagra v
Ġcampe ones
ER N
ĠGu an
Ġcaracter ÃŃstico
ĠBen j
Ġadelant Ã³
gu ero
Ġestere ot
rit is
ĠL anz
ĠÃ¡rbit ro
Ġson ar
Ġpase os
Ġmult as
Ġinteres ada
Ġhalla zgo
ĠG erm
Ġsab ÃŃan
ĠG Ã©nero
ĠI U
Ġorgullos o
ĠMis s
Ġjub ilaciÃ³n
ĠB est
ĠPla nt
Ġa gl
D ef
9 00
Ġh ilos
Ġcoord inar
S el
Ġimp edi
Ġdej arse
Ġpron Ã³stico
Ġp ut
ĠVir gin
Ġs ales
Ġmort alidad
Ġinquiet ud
r us
Ã¡r qu
em on
Ġacel er
Ġvac un
Ġus adas
ĠPre par
Ġin ac
ĠS ust
S up
Ġcar am
ver y
Ġase guro
ĠMed idas
Ġcay endo
Ġpre gu
e bre
Ġestad ÃŃstica
ĠNatur aleza
Ġinterm edio
Ġest ir
ĠF lo
ĠB ull
Ġp Ã¡nico
u go
Ġrom anos
Ġtot ales
at iv
ĠW ood
m icos
Ġtex turas
od oro
Ġsuper aciÃ³n
Ġcont enta
Ġparad igma
Ġemp eÃ±o
Ġurb anas
Ġperman ecen
Ġhumil dad
g ap
Ġexact itud
Ġsa grado
Ġdesp reci
las e
Ġmas ac
ĠInf ra
Ġsend ero
Ð ĵ
ĠH as
ve sar
ho y
Ġinnov adores
ill ano
olv iendo
Ġsec uestro
Ġp ig
Ġsente ncias
f an
Ġest er
Ġvenci Ã³
la h
ĠLegisl ativo
le jo
ÃŃ cito
ĠUn ited
ĠLabor al
Ġrecop ilaciÃ³n
po ol
ĠCast ellÃ³n
et te
Ġinmin ente
Ġtro zo
Ġorden amiento
ho o
Ġbibliot ecas
Ġrub ro
Ġmir as
ĠJue z
ĠT ec
Ġinterp reta
Ġdin Ã¡micas
Ex celente
Ġimprescindi bles
Ã¡r t
igu ero
Ġ198 3
Ġmetabol ismo
que ar
Ġic onos
Ġpim ienta
qu itos
! âĢĿ
itu ciÃ³n
ur ados
Ġviaj ero
Ġsigu ieron
ĠAlcal dÃŃa
Ġcomun ista
ant ino
na p
Ġenc uest
rig ada
Ġman gas
Ġcrit icar
Ġdesc ript
ĠT ay
Ġpest aÃ±as
ĠUl tra
s ur
Ġaclar Ã³
Ġrefiere n
ĠA BC
ĠG i
ĠMÃ© dico
.... ..
iÃ³ ticos
ĠEj ecut
M art
ĠSocial ista
il s
ra ma
ĠAm Ã©ricas
Ġb ando
Ġnot ificaciones
Ġprogra mar
Ġingle ses
tar o
em i
Ġhisp ano
Ġindisc ut
ĠmÃŃn imas
M is
Ġint ermin
ĠS EC
ĠVer ano
Ġdesign ado
Ġemp rendi
Ġmanio bra
Ġcub iertos
Ġh im
ĠCaf Ã©
Ġrefer Ã©ndum
Ġfl ora
m isiÃ³n
C arlos
Ġt echos
Ã©r s
d urar
Ġcap illa
Ġcol g
et t
Ġsol ÃŃa
D ES
Ġb ac
Ġvin ilo
ĠC eci
ĠIs idro
ĠBra vo
ĠGl oria
Ġprob abilidades
Ġpas ajes
ra jes
Ġv era
ĠMo isÃ©s
Ġvota ntes
Ġtra mpa
Ġfund Ã³
Ġc ese
ĠeconÃ³m icamente
Ġcre mas
u amente
ab il
ĠTelef Ã³nica
Ġdo ctora
sto les
Ġad ult
Ġprov ienen
Ġincl in
ĠTar ragona
Ġ dedi
Ġprim arias
ĠS IN
Ġprogram ado
Ġbendi ciÃ³n
ĠCh ris
Ġplant illas
ĠScot t
Ġsp am
e amiento
Ġdil ig
Ġpid ieron
ĠjurÃŃ dicos
ĠJer ez
Ġcanad iense
Ġ durar
Ġpar ecÃŃan
Ġrec up
x ima
Ġdeleg ados
Ġcre cen
at ismo
ĠhÃ¡b itat
Ġatrib utos
T el
Ġsop ortes
Ġcir uj
Ġbancar ias
ĠAgu irre
Ġres iste
Ġdi lu
ost on
Ġil ustr
ĠM az
ĠSy stem
Ġexpl ico
Ġrecomend ar
Ġence nder
v it
ĠSecretar ia
U B
Ġdeb ilit
Ġsomb rero
ĠcÃŃr culos
Ġcamp us
Ġfin alizado
Ġdisfra z
Ġorient ada
ÃŃf icas
ĠCaball ero
Ġ( Â«
Ġdi Ã¡logos
Ġhier ba
ĠProcur adurÃŃa
Ġelev ados
Deb e
Ġnoctur na
ĠL ive
Ġsimult Ã¡neamente
Ġpes ados
Ġcatal og
Ġrecor re
Ġadm isiÃ³n
Ġesm al
Ġcotid iano
Ġinform al
ĠVie jo
Ġacept able
che n
ĠnÃºc leos
Cat eg
art as
Ġfi jos
u za
Ġser iedad
Ġpal m
Ġesc ort
âĢ¦ ..
Ġres on
Ġcome n
Ġsu icidio
Ġarran c
Ġr on
Ġllev arÃ¡n
ĠHerman dad
Ġpos te
ES TI
Ġprovoc an
h os
Ġcorpor aciÃ³n
n ig
ĠO C
Ġref uerzo
te ncias
Ġreci ba
Ġdesapar ece
Ġver bal
Ġ19 60
Ġf et
Ġinstal ada
Ġex al
Ġaer ona
Ġprem isa
Ġexp uso
Ġpe sa
ĠI T
ĠTe am
aliz ador
ĠMex ico
Ġinfl uenci
Ġemp erador
Ġcaracter izan
Ġemit iÃ³
Ġenc aj
ent adas
rent a
Ġenc uad
Ġmanifest antes
Ġcont act
Ġproduci dos
Ġf ec
Ġse para
Ġcontin Ãºe
Ġagrad ecido
ĠPro ceso
N ada
est Ã¡
Ġrep Ãºblica
ĠV AL
Cu Ã¡nt
Ġimp id
Ġavent ur
Ġgrab aciones
T om
qu Ã©s
ĠS oria
Ġin deb
Ġtransp ortar
Ġases ores
ĠR ap
Ġhab le
Ġreempla zar
Ġaf ueras
ĠPres entaciÃ³n
Ġb ala
Ġ^ ^
ĠM am
G EN
Ġcond ens
Ġm y
Ġcr Ã³nicas
ĠA ux
Ġcompromet idos
ree n
Ġartic ulaciones
Ġtome n
Ġor gas
Ġconven iencia
ĠV III
idis cipl
ĠL G
Ã¡m icos
Ġfach adas
Ġestre ch
Ġmedi an
ĠÃŃnte gra
et c
Ġt onal
Ġregular mente
Ġmuch ÃŃsimas
ĠRonal do
ĠC rim
Ġpon erme
Ġpobl ado
ĠclÃ¡us ula
Ġrequer ido
nc h
Ġprom ocional
Ġdic cionario
tor y
ĠB od
Ġobten iendo
ĠTecn ologÃŃas
ruc tor
Ġtran sex
ĠRep ubl
at us
ĠSec undaria
Ġ197 3
sp ot
ĠA sc
Ġamena z
Ġas f
at ive
Ġcant era
ĠO P
ER C
Ġper on
ĠEsc o
Ġpar king
ĠGuar di
no va
Ġemer gencias
ĠOb ra
Ġdur m
ĠS ob
Ã©ndo le
Ġm era
d omen
Ġg irar
OL U
ĠUc rania
Ġan ex
ĠWh ite
ĠT OD
ĠinÃºt il
Ġfich as
ĠMov istar
Ã³ stoles
Ġcla v
Ġprove e
Ġescuch e
an ol
ar ta
Ġimpres o
Ġdivid ido
Ġp uestas
Ġderiv ado
< /
dib ujos
Ã³rm ula
Ġcorre a
Ġarquit ectos
Ġman dÃ³
Ġsencil lez
In formaciÃ³n
ir me
Ġexig entes
Ġnostal gia
Ġtar da
ĠTrat amiento
ab amos
f era
Ġant is
Ġasign ado
ĠhÃºme do
ĠG ris
ĠV oz
Ġperten ecer
edi encia
Ġesc aso
Ġorganiz ados
ĠMil Ã¡n
ĠLu go
Ñ ĩ
ĠE leg
ps ia
Ġacum ulado
Ġrecur rente
Ġtre ce
Ġanim ado
Ġsu ci
Ġarte f
Ġrep ortes
Ġban deras
Ġprovinci ales
Ġma xim
ĠRe un
ĠP iÃ±
Ġfal taba
ĠMÃ© ndez
Ġcel este
let ismo
g Ã¡is
aste cimiento
Ġtub erÃŃas
ĠAd am
el Ã©ctr
S uper
Ġar ag
p ec
Ġdej Ã©
Ġc enten
ĠclÃŃn icos
Ġagres iones
Ġviol enta
ĠT all
Ġvolv emos
Ġret ira
Ġcom icios
Ġinv entario
ĠT oro
ĠMan chester
Ġenorm emente
Ġpre dio
Ġperman entemente
id era
Ġdesn udas
Ġpl Ã¡sticos
ĠConce jo
ĠN E
lan ueva
ĠAdo lesc
ĠOr questa
idad a
ĠPÃºbl icos
ien zo
ĠðŁĺ ī
lu ten
Ġconver sar
ĠEx iste
Ġlament able
ĠÐ ²
Ġinfra cciÃ³n
A mb
ĠSel eccion
ĠCap acidad
w eb
Ġdeb at
Ġb ull
Ġtrans acciÃ³n
Ġs atur
tar Ã¡
Ġdura bilidad
Ġindi os
Ġhiperte nsiÃ³n
Ġesc onder
... ,
Ġv intage
Ġ197 9
ĠP etro
Ġdi rÃ©
Ġvolunt ario
M AN
Ġjud ÃŃo
ĠL ot
Ġform aciones
Ġinici aron
Ġqu ise
ĠâĢ ĭ
Ġgo ta
Ġrel ata
Ġmis ericordia
Ġexperim ental
ĠD J
ĠVol unt
Ġconsci encia
ĠEsc olar
je ciÃ³n
abor aciÃ³n
Ġparticip arÃ¡n
Ġsupl emento
ĠVirt ual
Ġcar ros
ra f
Ġaprendi z
Ġinad ecu
e nre
Ġequ idad
Ġju veniles
Ġprotagon izada
ĠVia jes
icol or
ĠB A
ĠCab ildo
ĠdiseÃ± adas
V ID
ĠJo e
Ġsus ci
ad illas
ĠcÃ³n y
Ġdesign aciÃ³n
Ġcomp acto
le d
Ġt hat
Ġj ejeje
Ġco herente
ĠL ight
Ġyo ur
Ġapoy ando
as tas
ĠF emen
Ġve amos
Ġcompetit iva
Ġc Ã©sped
Ġpareci da
Ġdesp e
ĠPr ÃŃncipe
H H
sc ripciÃ³n
A utor
Ġni Ã±ez
ĠM Ã³nica
Ġprogres iva
ĠCab o
Ġimp osiciÃ³n
Ġmic ros
ĠRep ar
M uj
on atos
Ġc ÃŃv
ĠPie dra
ĠNo ta
ad ita
Ġoptim izaciÃ³n
ĠclÃŃn ico
ĠN ev
Ġhinc apiÃ©
Ġjab Ã³n
Ġcat ed
P G
Ġatra vesar
Ġcaball eros
Ġdo g
ĠJo ven
Ġvisu alizaciÃ³n
ĠU C
Ġsel ecciones
Ġextend ido
ĠEmpres arial
Ġrechaz Ã³
Ġmensaj erÃŃa
Ġcomun ica
ĠO h
Ã©s imo
m ed
ĠWilliam s
is cos
Ex iste
Ġcos ech
Ġlib rerÃŃa
Ġcur iosa
Ġinmobili aria
Ġsini estro
ĠMag dalena
Ġall i
ĠA lan
Ġpunt as
Ġinvit Ã³
ĠWal ter
L AS
n j
ĠM eg
Ġsurg ido
ron omÃŃa
Ġub icadas
Ġport Ã¡tiles
ĠSol ar
ĠCamp us
ac ol
Ġf rÃ¡
Ġeditor iales
Ġmont ado
Ġrom ana
Ġven ÃŃan
Ġtra cciÃ³n
Ġaman ecer
le ados
x s
graf o
ĠmÃ© ritos
TI TU
Ġmono pol
ĠOr lando
Ġobserv ando
Ġvac una
Ġurban izaciÃ³n
Ġpres ento
Ġconform ado
Ġreun ieron
Ġsup uso
ĠRo pa
Ġsug erencia
Ġcas ado
Ġps ÃŃqu
im al
Ġconstr uyÃ³
ĠÃ©l ite
Ġin Ã©di
dos e
Ġchime nea
ĠintÃ©rpre te
ĠCo leg
ĠAdo lfo
dis cipl
ĠMi emb
A quel
ĠcÃ³m odas
Ġaltern ativo
om er
ĠO mar
Ġmin u
ĠIl ust
ĠTÃ©cn icas
go gÃŃa
Ġres uci
ĠG ijÃ³n
ĠE C
Ġtribut aria
Ġfi able
Ġconten edores
ĠSe govia
Ġrevel ado
Ġemp eÃ±
Ġh eg
AN TE
ĠmandÃŃb ula
Ġfantas ma
M arÃŃa
Ġescrit as
ĠU ribe
fol io
Ġmas car
A v
Ġdetermin ante
Ġrep aso
Ġpropor cional
ĠautÃ³n omas
Ġfacil idades
Ġescog ido
Ġest anc
Ġlatino americanos
ĠL unes
Ã Ĺ
le ncias
ĠJu venil
Ġc Ãºp
ĠG T
Ġoccid entales
Ġest Ã©tico
Ġponer lo
p ientes
Ġpl ur
Ġsin Ã³nimo
ĠcÃ³m pl
ĠP ic
Ġalcanz an
Ġocul to
ilan dia
Ġdesc ans
Ġrecuper ado
Ġing esta
Ġdivid ir
v ard
Ġhura cÃ¡n
ĠÃ¡ gil
Ġprop onen
Ã³graf o
Ġexam inar
Ġque ma
Ġre quiera
Ġetique tada
Ġch ap
ĠFoto grafÃŃa
ĠG ram
Ġrelaci ona
Ġdis im
Ġ197 5
bur go
Ġpresente n
ĠAdminist raciones
Ġn ue
Ġrecom pens
A gre
re ar
ust os
zob ispo
Ġdesgra ci
ĠAs istencia
ex p
Ġbr on
Ġab rigo
at ada
Ġcompar to
Ġf ontan
ĠComp ra
Ġnoctur no
Ġcel os
s gar
Ġcat Ã¡stro
Ġsuces iÃ³n
Ã¡n eas
Ġprecios os
ĠES O
ĠB itcoin
Ġmodif ic
ĠD al
Ġcrit ica
la ve
Ġclas ificar
ul adas
ic om
Ġan imo
ĠS ent
Ġimpul sa
Ġlograr lo
v s
Ġautor izados
Ex per
Ġcar os
Ġadquir idos
Ġ Ã³p
Ġsub asta
Ġpermit ÃŃa
Ġle altad
Ġrecib imos
Ġhamb urgue
Ġolv ida
Ġcay eron
Ġmolest ia
Ġor iente
ĠBusc a
ĠR ot
ĠAl ma
aco a
ir it
Ġme xico
O f
ĠManten imiento
ĠAma z
Ġaf ines
Ġderiv adas
Ġpenet raciÃ³n
ĠS omb
at isf
ĠS D
Ġrode ada
Ġcor onel
Ġpref ieres
Ġinund aciones
Ġfat iga
ĠMas s
ĠRe na
Ġrast ro
Ġdiscul pas
ĠB las
ente ncia
Ðµ Ð½
G ener
Ġpost res
Ġplan etas
Ġec les
N E
Ġjap oneses
Ġsuav emente
Ġc ines
Ġsindic ales
Ġluminos idad
Ġseg uras
ro quÃŃ
ĠF uego
ĠMin istros
Ġenfoc ado
Ġinflu ir
ĠC ord
Ã©is bol
ĠP ag
u ki
Ġaparecer Ã¡
Rec ord
ĠJul ia
ĠL im
Ġfrust raciÃ³n
Ġincl uyÃ³
ĠPriv acidad
Ð¾Ð ²
Ġesque mas
Ġanal ista
Ġestar Ã¡s
Ġmone taria
n ante
ob os
ĠO fre
ur ismo
Ġsc orts
Ġrecorr idos
Ġat iende
ĠB ul
ĠS he
Ġf ast
Ġpersonal izadas
Ġedif icaciÃ³n
Ġb izc
Ġor ina
ĠTr inidad
ĠV ers
Ġ enre
rÃŃ e
ele n
iÃ©ndo le
Ġvend idos
ĠG ib
Ġan exo
ap os
ĠDef ens
re di
Ġreconoci das
ĠGol f
Ġh ere
h Ã©roe
? -
pe uta
Ġdem onio
Ġg eo
ien za
Ġreperc usiÃ³n
ĠN ingun
ĠCin co
Ġpobl adores
Ġreac cionar
ĠH il
Ġimp act
Ġaproxim aciÃ³n
Ġrecord amos
Ġdev o
gun as
Ġpreocup arse
Ġencant arÃŃa
ĠPar ro
ĠA del
Ġmol esto
h ue
Ġdict amen
Ġrequer ida
Ġperci be
Ġse nda
d orada
ĠMar te
tique tado
im in
ĠSindic ato
Ġrecl amos
Ġro taciÃ³n
Ġpal ma
ĠS erÃŃa
Ġadi v
Ġllegar a
Ġrom ance
Ġampl i
Ġromp iÃ³
Ġpel os
ĠEnt rada
Ġcas eros
ĠT em
aci entes
ĠBol so
ĠdomÃ©st ico
Ġins iste
ward s
Ġr ib
graf ÃŃas
Ġcas arse
U RA
Ġmem orias
Ġeduc ar
reded or
Ġpunt ual
Ġcal ificÃ³
Ġexper ta
ĠSil via
Ġrep oso
and as
Ġasign aturas
ES CO
Ġt in
Ġformul arios
Ġac h
Ġcre ativos
Ġi remos
D esarrol
Ġreun ido
don ado
Ġmi ro
Ġagr ado
Ġtreme ndo
Ġretir ado
Ġinaug urÃ³
t ario
Ġ4 50
ĠtÃºn el
ĠT odavÃŃa
ul oso
os ter
Ġre za
Ġasc end
Ġsu jeta
Ġmin eros
Ġvert icales
Ġconvert irÃ¡
ĠCo nte
Ġbrit Ã¡nicos
Ġbusc adores
Ġgrie ga
TI VA
ul ante
Ġab domen
l ac
ĠF IN
Ġtermin aron
ier nos
R el
Ġfal s
Ġor illas
Ġdesarroll adas
Ġcer ro
Ġuruguay o
Ġpo dio
S ON
Ġsust ra
ros p
U P
Ġesplend or
Ad visor
ĠEl lo
Ġglo bo
ĠCont emp
Ġenv ÃŃe
Ġh omo
D on
Ġdefin ida
ĠestratÃ©g icos
in illa
Ġmuch achos
Ġencant ados
e sat
y y
ĠpÃ¡jar os
ĠAmeric ana
Ġcinemat ogrÃ¡fica
ĠDeb emos
Ġan ima
Ġ2 20
ĠÃī ste
Ġeng aÃ±o
Ġpeda zo
amb o
l lo
ĠUR L
if o
Ġelabor ada
Ġentren adores
u idad
Ġobten ida
ie ves
wa gen
Ġmister ioso
Ġdoce ncia
Ġmaravillos as
ĠIb iza
d eso
Ġro dar
Ġequilib rada
ĠSE G
Ġapart ados
Ġdef ra
ĠLo ve
al do
Ġbar bar
us se
ĠRE G
ä º
Ġminim izar
AR IA
ĠCab rera
re p
Ġsuel dos
ĠCom enz
ĠSam uel
Ġsens ual
Ġmerc antil
Ġmilag ros
bl emente
b us
Ġingre diente
ÃŃ te
ĠUnivers ity
Ġmi re
form ance
Ġco yunt
ash ion
Ġfer ias
ĠSha k
Ġenc aje
Ġarreg los
ĠÃ¡rabe s
Ġcrist ianismo
ĠM ant
Ġmonstru os
Ġvent ilaciÃ³n
Ġmodern idad
e sgar
Ġp ub
k g
Ġsuperfici al
Ġrecord ando
Ġ Ñģ
Ġactu ando
Ġcontrol ada
ent aron
Ġfal se
Ġh al
ĠAper tura
Ġvol cÃ¡n
Ġvoc ab
Ġreclam a
val os
Ġcuad ra
Ġpre co
Ġdeport ista
Ãº stico
Ġquedar Ã¡n
ĠlÃ¡ c
Ġquedar ÃŃa
Ġ dorada
Ġsitu ados
ĠfÃ¡ bricas
ĠR ose
Ġparticip aciones
Ġautop ista
ĠYuc atÃ¡n
Ġimplic aciÃ³n
Ġende ud
Ġaerop uertos
ira nte
Ġfuncional idades
ĠExp ress
Ġte ns
un k
f ran
Ġlegisl atura
Ġdeb ida
art ir
P at
iz aron
Ġhorm onas
ĠDis eÃ±
Ġcre aron
f ico
ven idas
ĠE M
Ġexist an
Ġp leg
sp era
Ġabor da
ĠValent ÃŃn
ĠAra bia
Ġred ondo
Ġhay amos
Ġvar iado
Ġpat ologÃŃa
Ġintegr ales
ĠH igh
d esgar
Ġesper aban
int os
ĠB ut
Ġgobern antes
ĠC ore
Ġreclam aciones
Ġdel icada
Ġdomin ios
ran as
D AD
it ativo
ĠZ ar
al i
ĠG racia
Ġorg Ã¡nico
Ġprim o
ĠQuer emos
Ġdesp ro
Ġgobern ar
Ġcarp int
Ġauditor ÃŃa
d amas
Ġins ulina
ĠH ard
Ġ/ /
ĠB Ã¡r
Ġsent imental
P ens
Ã¡n eos
Ġcontrib uyentes
1 50
U CA
act ivo
J unto
Ġline al
Ġestre nos
g rÃ¡fica
Ġdelinc uencia
ograf ÃŃas
ĠN ik
uj illo
Ġtir as
il t
Ġ197 7
Ġprostitu ta
era ntes
Ġencont rados
ĠSe ns
ĠR oll
ĠM ix
Ġpad ecen
Ġmaest rÃŃa
or da
Ġca udal
Ġfi abilidad
ĠMicho acÃ¡n
ĠM uebles
ĠC aj
Ġaspira ciones
uos os
Ġapell idos
Ġproducir se
ab eth
........ ........
Ġcor o
Ġmedi aciÃ³n
Ġbaj ando
ue Ã±o
Ġordin ario
ĠC asta
Ġrecom iendan
Ġdon aciones
Ġsini est
ÃŃ lica
T RE
Ġobst Ã¡culo
Ġpist ola
Ġilust raciÃ³n
u arios
ĠM ucho
ĠBaut ista
Ġdu reza
Ġcomenz amos
d esat
Ð ¼
St ation
Esp eci
Ġpod ÃŃamos
ĠPro to
an ada
ing Ã¼e
Ġintercambi ar
Ġsolid aria
ĠB ea
L uis
Ġsucedi endo
Ġrelaj arse
Ġc uenca
ĠPen ÃŃnsula
est an
g ol
it ativa
Ġinm ejor
ĠR ese
Ġre nc
ĠcomÃºn mente
Ġb illones
Ġsal gan
S a
ĠOccid ental
Ġestre na
ĠPer u
Ġpertin ente
Ġver los
ĠN um
wit ch
d enas
Ġa so
Ġha gamos
Ġad hes
Ġsupl ementos
ĠM ike
ĠCon oce
Ãĥ Âº
Ġret omar
ĠPok Ã©mon
ĠComp rar
ĠÂ ©
Ġsemej antes
ĠS hop
Ġfavor ables
Ġcuant ÃŃa
cont in
iv aciÃ³n
Ġel ast
Ġpr i
Ġevent ual
ament ablemente
ĠT Ã©r
ĠO cho
Ġestren Ã³
Ġviol entos
V IS
Ġneolib eral
ur ones
ug ador
ĠI C
ĠUnivers idades
Ġparlament ario
ĠDo wn
Ġconoz can
Ġadver tencia
Ġad ulta
ad illo
ĠPres identa
Ġequip aje
Ġconsigu ieron
Ġsac ando
Ġ umb
ĠV ac
ĠÃ³p era
Ġaudiovis uales
Ġesclav itud
an ÃŃ
an cha
Ġsal imos
el son
rendi zaje
ab et
up s
ĠConst it
ĠA lar
Ġagu jeros
az as
Ġinvestig a
ir i
Ġviol ento
ĠAl um
ĠP H
Ġlogot ipo
Ġform ulaciÃ³n
Ġmas turb
Ġ desgar
las s
Ġhabit an
Ġacudi eron
Ġglob alizaciÃ³n
Ġprivileg ios
Ġpu Ã±
k l
ve da
ĠH TML
Ġc lam
Ġpul so
ĠOff ice
gu ila
Ġch al
Ġcas illa
ĠP AS
Ġincomp at
id ia
Ġrect ificaciÃ³n
Ġvisit ando
om al
Ġrevolucion aria
ver so
ĠJ oy
Ġcorpor aciones
Ġap oder
ĠSab emos
Ġperd idas
Ġmet Ã¡f
ĠPrem ium
Ġin ocencia
ĠNorm almente
ros is
ĠMart ÃŃ
Ġret om
ĠB ook
Ġviv encias
Ġisrael ÃŃ
ĠSuper inte
ĠP utas
Ġcomprend ido
Ġmonit oreo
Ġn ul
ĠOl iv
Ġtr ÃŃo
Ãį C
A prov
Ġincrem enta
Ġpote ncias
Ġinsist iÃ³
Ġhipot eca
ĠSER VI
ĠB y
[ âĢ¦]
nci alidad
Ġorganiz Ã³
Ġencontrar emos
Ġesc lar
ĠR ue
Ġaseg Ãº
Ġat mos
is ibles
Ġmis m
Ġinform ativa
Ġ desat
Ġrom Ã¡nt
Ġimpos ibilidad
eci da
Ġat enta
ĠTecn olÃ³gico
Ġb ate
Ġinvers ionistas
am pa
Ġ198 1
Ġdependi entes
Ex p
Ġinsc ritos
Ġ% .
Ġpa ul
Ġdesesp eraciÃ³n
Ġdo Ã±a
Ġsatisf echos
Ġcooper ativas
Ġperd idos
Ġver an
Ġampl itud
Ġsegu idos
ĠSo le
Ġid io
ĠP esca
Ġpregunt an
Ġcomp rando
Ġpal p
ib o
Ġre ta
ect iva
pe nas
do b
igu a
Ġrevel ar
Ġcaus ando
it ness
Ġ damas
Ġimp reg
ĠnÃ³m ina
Ġenferm erÃŃa
ogra ma
ĠÃŃ bamos
Ġdestac adas
Ġmed allas
Ġprepar an
Ġcont able
Ġbrin dan
ac ebook
ĠIN S
Ġm entes
Ġresuel ve
Ġinv oc
D esp
ĠPrue ba
ĠcompaÃ± eras
Ġvisit an
Ġr all
Ġdesesp er
Ġcompet iciones
Ġcl ient
Ġordin aria
ĠD OM
ĠcÃ©le bre
Ġp izar
Ġcan ciller
ĠBomb eros
Ġtril ogÃŃa
Ġstar t
Ġdese nf
v estre
Ġproy ecciones
rocar b
Ġno ciÃ³n
ac emos
ĠS tra
Ġdren aje
Ġcoca ÃŃna
Ã± e
Ġacab aba
Ġtraduc tor
Ġelig iÃ³
er na
Ġmore na
Ġreempla zo
Ġprese ncial
Ġal z
Al go
ng er
Ġactiv istas
Ġpedir le
Ġval iosa
ĠreÃºne n
Ġdesem bar
ĠM UN
ona ere
ĠtÃŃp icas
Ġ( Â¡
Ġesp eras
Ġfelici tar
Ġfin alizaciÃ³n
Ġins ult
Or gan
ĠEstr ella
ĠB oston
s ech
ĠQuÃŃm ica
ĠHit ler
Ġenfrent amientos
eros o
T Ãº
ĠAm erica
ĠP E
C ualquier
Ġflam enco
Ġat entados
ud ar
Ġproxim idad
Ġaj edrez
ĠSte p
Ġpel ot
ĠS pe
ĠmetÃ¡l ico
ĠJe nn
ĠP ast
h l
Ġten iente
p ad
Ġactiv aciÃ³n
Ġgran ja
CuÃ¡ les
rimon iales
R ob
Ġbusc arÃ¡
Ġbu ques
Ġmedioamb iental
r erÃŃas
M X
Ġident ificados
Ġcole ga
ĠF O
ĠTrip Advisor
up a
Ġinver n
Ġanot Ã³
Ġdem ora
Ġpre car
Ġmostrar Ã¡
ĠFre e
w o
ĠCrist ian
Ġbio diversidad
ĠCar naval
Ġpeligros as
Ġcuad ras
Ġexclus ivas
Ġverdad e
? ...
Ġdesconoci da
ĠCar l
Ġcan on
Ġorg Ã¡nicos
Ġfrec uencias
if ico
ĠElect rÃ³nica
Ġextra cto
Ġrost ros
ic ulo
Ġenv ÃŃan
ho e
Ġmet ropolit
ADR ID
Ġpeque Ã±
aci do
ĠAl z
Ġgen iales
Ġinfl uye
Ġdet iene
Ġtom arÃ¡
Ġrem edios
Ġverdad eras
ĠDi ana
ĠC umbre
ĠAr ias
Ġred act
ed icto
Ġalcalde s
Ġol ores
Ġencar gar
Ġcre mall
Ġj ar
Ġcaut iv
Ġpiz za
Ġalfomb ra
Ġs ta
Ġgoz ar
Ġvoc al
ĠAn na
ĠLabor atorio
Ġdistribu idores
ĠV ille
Ġfirm eza
ici dios
Ġsu ite
Ġfij aciÃ³n
EN TO
Ġdocum entales
Ġfre n
Ġreg lament
ot mail
Ġsec as
ok e
Ġconstitu ido
Ġpetrol era
ĠM ile
ul adores
bo hidra
Ġap rue
Ġco herencia
Ġf ro
ks wagen
Ġcompetit ivos
Ġ isl
we et
Ġref in
ud ÃŃ
ĠJ as
Ġase o
Ġex ilio
Ġpl omo
Ġarran ca
ĠestÃŃm ulo
ĠAlex ander
Ġform ales
s ica
Ġsaber lo
ĠÃŃnt imo
Ġpesc adores
ĠBern ardo
n in
Ġforest al
ĠPubl icado
Ġdesarrollar se
ĠCOM P
B ol
ĠM ill
Ġrepet iciÃ³n
Ġdetermin Ã³
Ġmel od
ĠV Ã©
Ġh ipo
Ġescap ada
Ġcontrovers ia
Ġmult idiscipl
rim idos
ist ra
Ġcorresp onder
Ġrefres c
Ġcicl istas
Ġcal entar
Ġ deso
Ġseleccion a
Ġprol if
Ġsem anales
Ġal ien
Ġadjud icaciÃ³n
ron g
Ġnut rit
an Ã¡
Ġintegr ados
Ġcompat rio
Ġbre ves
ĠVil lanueva
Ġal Ã©r
cep tos
ĠTuc um
Ġagrad ables
Ġso pa
Ġgros or
Ġco cciÃ³n
Ġm ales
ĠF Ã³rmula
Ġap ete
ĠquÃŃm icas
Ġag ropecu
Ġsinc ero
ib ar
Ġsede s
Ġvin ieron
ent arse
Ġacudi Ã³
Ġopt imismo
er tas
Ã© taro
e sech
ĠmÃ¡x imas
ĠExcel ente
ĠF UN
Ġemp atÃŃa
ĠFer rari
Ġmadrile Ã±o
ĠM B
Ġpas Ã©
Ġjust ifica
Ġmeter se
CuÃ¡ nto
Ġsignific ativas
ĠEmp ez
d esech
Ġpunt uales
Ġ196 8
est ina
ĠRev olucion
ĠAnt io
Ġpat ologÃŃas
Ġb eta
ĠN BA
i y
at han
f ectos
Je s
Ġitiner ario
ĠNet work
ĠMedi os
200 1
Ġhor ne
ĠVic tor
Ġdistribu idor
Ġam uebl
Ġins umos
ĠtÃ©rm ica
Ġpin ch
Ġconv ocar
ĠquÃŃm ico
Ġforest ales
ĠP ur
ĠMedi ante
ir as
rm ol
Ġsum ando
Ġop ositores
Con se
Ġt as
ĠengaÃ± ar
ac te
Ġtradicional mente
Ġasfal to
Ġconcent rado
el ada
Ġclas ificado
Ġsec reta
l Ã¡n
Ġdestac ada
Ġlimp i
Ġcompar ado
ol is
Ġcafet erÃŃa
ĠC ru
ĠO B
Ġabier tamente
aj u
ir ro
Ġacorde s
Ġconsult orÃŃa
Ġorgullos os
Ġsobre pas
Ġconsider aciones
Ġcom ento
Ġform e
Ġesc Ã©n
art h
Ġcompromet ida
Ġpad ecer
ĠH O
Ġsuper ando
Ġat ro
Ġcar ril
ĠEm il
ĠLengu a
ĠAntigu o
Ġinstant Ã¡nea
M ira
Ġz anah
Ġpas arÃŃa
U b
Ù Ĩ
Ġaje nos
Ġrese Ã±as
ĠW at
ĠE nci
Ġ ÃŃdo
ĠI X
Ġconstitu cionales
Ġcon gres
o fici
Ġverdade s
ĠâĤ¬ .
Ġt uy
Ġdesapareci dos
inos o
rÃ³n ico
ĠC i
ĠCor ona
Ġr inde
Ġap er
Ġdu do
ĠB la
ĠK y
Ġrecha za
T IC
t ivas
Ġestr ell
Ġorganiz an
Ġre donde
ĠTok io
Ġn as
ĠJac ob
ich as
ig na
Ġmal la
Ġv iste
ĠCapit Ã¡n
Ġrespet ando
Ġdi ente
par able
ĠPa ÃŃses
Ġdist ritos
Ġconcent ra
Ġlegisl ativo
ĠT U
Ġbio grafÃŃa
Ġorigin alidad
Ġsusp end
Ġdeci da
Ġtur nos
ĠMal donado
Ġsusc rip
Ġacus a
Not icias
Ġest recho
Ġdeb atir
Ġcontamin antes
ved ra
Ġinjust icia
Ġconclu ido
Ġn om
ach as
ter rest
Ġladr ones
it i
Ġquer amos
u gar
Ġpel eas
Resp uesta
u Ã©
Ġmarc an
Ġguar dias
ur nal
ĠF L
Ġgrie gos
ĠlÃ¡m paras
Ġprom ul
Ġdefens as
Ġfer rocarril
Ġluminos o
p ado
" ;
Ġparcel a
ĠN is
ĠR D
Est ados
Ġexpan dir
H otel
ĠParticip aciÃ³n
Ġcontex tos
Ġrecup era
Ġmedi ana
Ġproven iente
Ġabandon Ã³
C as
Ġ endo
vi ar
Ġrecog idos
Ġpo Ã©tica
ay or
Ã¨ s
ĠcuÃ¡nt os
Ġs pa
Ġ desech
ĠPol o
Ġmaravillos os
ran ge
ĠG od
ĠN ational
Ġcomp rÃ³
Ġport ales
ĠC um
Ġconstitu ir
" ...
Ġandalu z
Ġloc alizado
Ãī l
Ġvolv ÃŃ
ta nto
Ġvaria nte
Ġconc urre
ir d
Ġasist ido
Ġcre adas
Ġpop ul
ĠD A
ĠC ara
Ġno ci
Ġt entaciÃ³n
ĠF uj
ĠK an
ic on
Ġconsegu imos
AC E
Ġrel ax
Ġasum iÃ³
ĠRoy al
OL A
y er
ĠFil ip
Ġterap ias
ĠsÃ©pt ima
nd os
ct er
Ġfund ado
osit ivo
ĠT in
ĠE ric
ĠperiÃ³ dicamente
Ġf Ã³s
Ġvac a
Ġconf ie
Ġrob os
G rup
Ġfra c
Ġpromet ido
ĠFre d
Ġlav adora
Ã©s ima
Ġmodern izaciÃ³n
U EL
ier s
ĠdÃ©ci mo
ĠB adajoz
Ġbaj ado
Ġhistori ador
Ġbanc ario
Ġn oroeste
ĠM r
y d
Ġperf ume
Ġce siÃ³n
Ġle a
ect ion
Ġdomici l
Ġ17 0
ĠEl iz
ĠF ont
Ġincent ivos
op io
Ġar du
Ġy og
Ġn ataciÃ³n
Ġgluc osa
Ġingres Ã³
Ġobserv Ã³
ĠR on
ĠmÃ¡ rmol
ĠK evin
Ġt umb
al m
Ġcaracter izado
ĠEnc ontrar
Ġres ign
Ġgo za
Ġcom encÃ©
Ġconfort able
pl an
Ġmuch acha
00 1
Ġsuper e
ĠB ert
ĠRub io
Ġcrey entes
ul Ã³
Ġpa ises
Ġg luten
ĠAlim entos
Ġreg ulares
x eles
ret amente
ĠM oz
ĠPlan ificaciÃ³n
ĠNeg ra
g amiento
ĠJue ves
ĠLibert adores
Ġplante an
Ġcomp res
ater ial
im aciÃ³n
ĠAng eles
Ġgalle go
Ġoper ativa
ĠEd gar
Ġtreme nda
Q L
Ġpart iendo
l at
Ġelev a
Ġr ar
Ġfacilit an
Ġindi cios
Ġbod egas
ĠmaÃ± anas
Ġagrad ece
ĠM X
Ġore ja
Ġatrib uye
ĠF MI
Ġhom ogÃ©n
ĠA te
Ġtur ÃŃsticas
Ġre nal
ĠJ azz
Ġreco gen
Ġartes anos
O l
Ġver acidad
ĠM and
Ġcomet idos
pol is
ĠG ig
Ġad hesiÃ³n
Ġpromo cion
ĠcÃ©l ula
Ġmuere n
ER AL
ĠO ce
Ġsuper an
ubr imiento
Ġcolabor ador
go ci
Ġagrup aciones
Ġg ro
del o
Ġconvirt ieron
I OS
ĠArm ando
Ġpl ural
ut ado
ĠJ Ã³venes
guar dar
Ġs k
IV ERS
ĠAm bas
Ġescal ada
UD AD
cid ez
ĠB is
ĠA du
ĠRob in
n b
Ġconsider aba
Ã©l ico
Ġhet ero
Ġacude n
ĠAut on
Ġpeque s
esa f
ĠMat ÃŃas
Ġapet ito
Ġrent as
Ġvincul ada
Ġz umo
Ġpad ece
Ġmult i
ĠM aÃ±ana
Ġinclu irÃ¡
Ġprosper idad
ĠFuer on
m il
Ġdiscrim in
ĠPro gramas
Ġn Ã¡
ĠEdi ciones
Ġcooper ativa
Ġfl ujos
Ġus arse
ĠBus h
ĠA ten
Ġref ir
Ġplac ent
Ġmetodo log
P oco
rim onios
Ġconf ÃŃa
Ġame n
Ġar omas
Ġdieci s
Ġb it
Ġrespect ivo
Ġestar Ã©
Ġinme ns
ent s
Ġvalor ado
Ġtur ista
Ġper cat
dil lo
ul ten
ĠMex icano
Ġinv irt
ĠR enta
Ġven imos
ĠlÃ¡p iz
Ġman dos
Ġab urrido
s orden
Ġdisput ado
Ġn ativos
Ġtem er
ÃŃ pt
ust ro
ar quÃŃa
Ġesfor z
ĠCic lo
bl as
Ġ !!!
ĠCON F
Ġapareci eron
IC E
ĠFamil iar
Ġinnov aciones
ĠF lash
Ġcomp ara
ĠF ull
Ġse pas
i anz
2 50
Ġbl ack
ern al
Ġper turb
Ġpre disp
rat ivas
Ġregist radas
orge s
Ġecos istemas
Ġpas iones
ĠSon ora
c ro
Ġtra icion
Ġsosten ido
ĠSer ies
ed y
ĠCl im
Ġentreten ido
Ġrecon oc
Ġad junto
Ġpat rio
Ġast ro
Ġconcept ual
ut s
le a
Ġs anos
Ġgal erÃŃas
ĠExp osiciÃ³n
ĠL and
ĠE sos
ver n
Ġqued aban
Ġnot ablemente
Ġplante Ã³
Ġesp l
se nal
ĠV entas
ĠExper iencia
a i
Ġbas an
Ġver b
Ġser iamente
ra p
pt ero
ep ort
Ġelev aciÃ³n
lar se
ĠM ons
ĠAg ro
Ġtuv ieran
ad s
Ġf eo
Ġmar cos
Ġadel anto
ac at
l ace
Ġcar bohidra
ĠVio lencia
uer d
Ġrepubl icano
Ġtron co
ĠMar bella
Ġcerve zas
Ġcrip tom
Ġsu c
aro te
I ER
Ġbloque ar
Ġpat ron
Ġmexic anas
ĠÃī sta
ĠT ony
Ġesp on
e nig
e sorden
d esorden
ĠP M
Ġdo tado
Ġajust a
Ġcomp osiciones
Ġmas ter
Ġinterpret ado
ĠH un
Ġpap as
Ġcaca o
Ġn ef
Ġempi ece
Ġarm ada
I d
Ġman usc
m el
ĠVirgin ia
Ġpres untamente
Ġinesp erado
Ġdesapar eciÃ³
ur ando
ĠCla us
Ġrefle jar
po p
Ġcab ez
Ġcombin an
Ġmar ÃŃtimo
ul ce
Ġtont o
at her
Ġactu alizados
ĠC och
Ġtraslad Ã³
Ġsobre p
Ġob rero
b el
Ġport ugue
ecu per
ĠL i
ĠCar re
na v
ĠVill al
Ġgu antes
Ġsinc era
Ġnul idad
Ġtrascend encia
Ġrebelde s
heim er
Ġnie tos
Ġinmedi aciones
ĠOr ient
Ġg rÃ¡ficas
ĠT S
ĠEsc uelas
ĠC RE
Ġmostra ba
Ġcar idad
ĠSal ta
Ġcorresponde ncia
itar iamente
ĠfilÃ³so fo
ĠN UE
Ġal arm
ĠInstitu ciones
Ġgalard Ã³n
Ġh ond
Ġbo letos
land Ã©s
Ġgest or
Ġge no
ĠBeat riz
Ġenc am
Ġvis ite
Ġcar encia
Qu ien
Ġg us
Ġinc Ã³m
ros os
ĠÃ ĥ
Ġdec ant
Ġmut uo
H o
ĠG N
Ġintens os
ĠK ong
Ġdec l
ĠH ua
Ġfotog rÃ¡fica
Ġar b
ĠRo o
f ic
ĠLo uis
: :
unt ry
qu ismo
ĠH al
m undo
Ġtemp los
Ġprev al
C entro
Ġmay ormente
Ġpal os
ĠPlay Station
ĠS and
________ ________
ĠToy ota
Ġcant ando
Ġcr ianza
ĠmÃ¡ ster
Ġcons istencia
Ġdi mos
ĠBat man
Ġf oc
qu erÃŃa
Ġcom a
Ġmar inos
B E
ĠFal ta
ĠEstrateg ia
em y
ĠdrÃ¡ st
ĠInstitu cional
ist entes
uel tos
Ġdi rÃ¡
ĠN ASA
Ġge omÃ©t
ĠJane iro
Ġdisp uso
Ġmay oria
Ġfin as
ĠDisf ruta
Ġdesc entr
ĠA vi
dr omo
Ġgran di
vers iones
ijo te
Ġpro gen
Ġan illos
d eud
lo b
n ver
Ġsender ismo
D er
ĠE vo
Ġasegur ando
Ġpretend ÃŃa
av i
ĠC M
Ġc Ã³ct
Ġsan itarias
Ġadap te
il ios
ĠG ame
ci dad
ĠCons um
Ġcompl icidad
Ġcad era
ĠC oca
Ġm ts
Ġllam ativo
Ġin ap
F F
Ġad icciÃ³n
tas e
ĠHab rÃ¡
ĠC ual
Ġplen itud
Ġheg em
Ġ dadas
Ġcat orce
ĠD ice
Ġof ert
Ġl lan
Ġvolv ÃŃa
ĠA go
Ġefect ivas
at on
ister ial
ra me
Ġsubs ec
Ġbest ia
Ġrest ante
Ġinsufici ente
ĠS andra
ag as
ster dam
Ġtranquil os
ĠPerman ente
ĠFinanci era
Ġtermin ando
ĠTr ujillo
uerd e
Ġsen adores
ĠEstad ÃŃstica
Ġb esar
Ġcompens ar
br ico
U A
ĠVic epres
Ġprim ario
Ġacredi taciÃ³n
ĠsÃŃnt oma
Ġplas m
Ġcal ibre
Ġlat ÃŃn
Ġp aja
Ġtra vest
Ġvendi endo
Ġpe nd
ĠD anza
Ġst reaming
Ġenv ases
Ġexpedi entes
Ġl ubr
Ġf rigor
ĀĀĀĀĀĀĀĀĀĀĀĀĀĀĀĀ ĀĀĀĀĀĀĀĀĀĀĀĀĀĀĀĀ
Ġpest aÃ±a
r ice
Ġbusc Ã³
Ġra mo
PU B
ĠJosep h
Ġdecis ivo
ĠH all
Ġcon mov
nci o
Ġp ata
ĠacompaÃ± antes
Ġil usiones
ĠLu isa
qu io
h ol
Ġacord Ã³
Ġimag inario
Ġdefin idos
Ġcer radas
Ġrec orte
Ġsolid ario
Ġanci ano
ĠTra vel
Ġv istos
Ġsuci edad
S ub
Ġperder se
Û Į
Ġnot ables
Ġmult if
Ġdemas iados
ad ell
Ġgarant izado
ĠH onda
âĢĿ ).
Ġbon dad
Ġdif erencial
Ġcoloc Ã³
Ġest res
Ð ´
Ġvi able
we i
Ġex ced
Ġra y
it ÃŃ
ĠTel ecomunicaciones
ĠVen ecia
ĠPel ÃŃculas
Ġmo ciÃ³n
Ġr aras
s la
! "
ĠF antas
Ġdedic arse
Ġnutr icional
Ġ desorden
in v
ĠacadÃ©m icas
Ġconsider adas
ĠA Ã±os
Ġhomosex uales
Ġestudi antil
di rector
Ġindifer ente
ĠDeport iva
Ġdar emos
Ġremo v
ĠR ivas
Ġ10 5
Ġal lan
Ġf ero
Ġreproduc tor
Ġconsecut ivos
ĠIz quierda
ĠCar acterÃŃsticas
AL A
ĠN er
Ġtend rÃ©
Ġreiter Ã³
Ġrap ido
Ġm ÃŃtico
Ġ36 5
Ġdecir se
Ġestat ua
Se gun
Ġdet alla
Ġcab ellos
Ġllam aron
ĠNorm a
Ġreduce n
Ġpreocup ante
Ġajust ado
re ciÃ³n
Ġmale ta
Ġdesagrad able
Ġpresent arÃ¡n
Ġ deud
G P
ĠM ON
Ġam ino
ĠBlue tooth
ĠGerm Ã¡n
los a
Ġs ite
Ġsel los
ĠB erm
ĠGir ona
Ġlevant amiento
ĠOr iental
fo x
ĠOc ta
B B
Ġexp uestas
ĠD icha
Ġfabric ados
Ġfal lar
Ã©cn ica
Ġcumpl im
Ãį T
Ġalmace nes
ĠNor uega
Ġdisput ar
ĠDe sign
cios o
ĠMa h
ecte d
Ġcaus an
ĠX I
Ġexpres o
ĠDan i
ĠAbra ham
Ġlap so
Ġhid rataciÃ³n
Ġoblig Ã³
) ...
ĠT os
Ar gentina
Ġgarant izan
Ġocup Ã³
ĠD ÃŃas
Ġpat rimonial
Ġjerar quÃŃa
Ġcol ombia
Ġejecut iva
Ã² n
Ġbel los
Ġcolor ido
Î ±
P ersonal
Ġtransform aciones
Ġand ando
ĠW W
Ã©m icas
Ġpreced ente
ĠR i
ĠB ron
ch t
Ġexpul s
c osa
ĠMar i
ĠGe org
Ġcontest Ã³
Ġpers ianas
Ġcuente n
Ġlook s
Ġveget ar
Ġintroduci do
Ġnov el
ĠAp oyo
Ġnace n
Ġantioxid antes
Ġsol tera
ha ga
clo p
ĠtrÃ¡ iler
Ġcor rob
ĠU lt
W h
em ias
Ġrec to
Ġdegust ar
Ġsac an
c ab
Ġsost ienen
qu illas
ĠRespons abilidad
cos ta
equ is
od in
Ġur nas
Ġcrim in
Ġvi abilidad
Ġa fe
Ġcir co
im et
Ġsue la
ĠGal erÃŃa
Ġex amin
ro co
J ER
Ġperte nencia
ĠAs unciÃ³n
Ġentra Ã±
ĠCort Ã©s
Ġem ig
ĠCh ihuahua
ĠP edi
Ġtorm entas
Ġ197 4
Ġdetect ado
Ġnecesit arÃ¡
Ġte Ã³ricos
Ġac ot
ore sc
AN DO
Ġencant ador
op ol
Ġauxil iares
Ġdej as
Ġesc uad
Ã©st or
ĠPubl icidad
b ot
Ġmet iÃ³
ĠDin amarca
dec er
ĠImp res
Ġoportun a
Ġases inos
Ġmagist rados
Ġfis i
Ġtrib uto
Ã³t icas
g ente
ĠJoh nson
ĠseÃ±al ando
Ġrespect iva
Ġpac ÃŃfica
Ġdec ad
Ġimp lÃŃ
O p
Ġadi Ã³s
ĠP eso
Ġgr ipe
qu in
ĠNuev as
ĠRena ult
Ġconfide ncialidad
Ġabr um
ĠEst ratÃ©g
Ġcol lar
Ġer up
Ġinteres an
D R
ĠH ig
Ġcomprom eter
Ġpres o
ĠCÃ¡r denas
Ġderro tas
ord as
s Ã³lo
Ġact ivas
ĠAsoci aciones
Ġc edi
Ġcons ulte
Ġm ere
Ġtern ura
iliz a
ĠFel iz
ĠCont acto
ĠC ay
Ġdesast res
Incl uso
E res
Ġconces iones
nab is
m ad
Ġob so
arde n
ĠP otos
Ġestro pe
bl emas
Ġfuer e
ĠSÃ¡b ado
Ġtra ck
Ġel ef
c amp
Ġpas as
ĠanÃ©cdo tas
J a
m od
Ġra yas
Ġbomb arde
Ġflu ido
Ġmagist rado
Ġgan aron
ĠGuar da
Ġcent rada
Ġclaus ura
Ġdesp le
Ġ19 36
Ġestren ar
Ġcit ados
ĠmÃºltip le
Ġcab ell
ec ular
ĠBien estar
ĠSal to
ĠAct ualidad
dil lera
Ġra cha
Ġayudar nos
Ġar quero
Ġemis ora
c reo
ĠJu ana
Ġestric to
pos iciones
ĠI ES
Ġj od
Ġind ud
ot riz
Ã¡s quez
ti empo
s y
Ġpir Ã¡m
n horabuena
Ġexist ido
ĠQuer Ã©taro
ĠP OL
Ġman go
ci sta
Ġalter ar
Ġfin aliz
Ġam ores
e nhorabuena
Ġmo jado
Ġreproduc e
Ġne to
Ġlit ro
ÃŃr culo
ĠC ul
Ġpropor ciones
ĠResta urante
Ġtoc aba
rec er
ĠTerrit orial
Ã³st ol
al in
ĠGer ente
Ġb its
ĠGreg orio
Ġprofun diz
Ġfran ja
Ġcerem on
Ġnucle ares
Ġculp ables
Ġregist rarse
Ġfarm acias
ĠBB VA
Ġdescar tar
ĠE nte
Ġin ger
ĠO k
Ġdesarrol los
ĠS oc
Ġpreci sar
Ġquer ÃŃamos
Ġfantas mas
qu ien
Ġporno grafÃŃa
ĠBo x
ad ore
D an
Ġcomien ce
her entes
Ġindi que
ĠLis boa
ĠB rad
Ġinst antes
ĠEn g
Ġcant antes
ĠG RAN
Ġj ura
Ġins ertar
ac al
ten go
Ġve nas
Ġcarbohidra tos
Ġrechaz ado
Ġpreca uciÃ³n
ĠW atch
ĠTucum Ã¡n
Ġmaqu inas
ĠSegura mente
Ġcre ativas
Ġconcent raciones
z ona
E qu
Ġembaj ada
ĠEcon om
ĠB esos
nes io
ĠN aran
Ġse di
Ġvac ÃŃa
Ġhalla zgos
Ġun il
Ġpel uqu
Ġextra Ã±as
ĠC ala
odo lfo
P rop
Ġdemas iadas
Ġpa usa
Ġvenci miento
ĠX ia
Ġf urg
ano va
Ġvuel van
N adie
Ġpas illos
Ġra b
H as
Ġbar ran
ist ad
Ã¡ ramos
ĠM isiÃ³n
ĠDia g
Ġconcent rar
TU RA
Ġche que
¸ ı
Ġsocio econ
Ġcort inas
ĠM ap
Ġaplic arÃ¡
ĠEnseÃ± anza
Ġreport Ã³
Â ¨
Go ogle
ĠSal as
Ġproduct ivas
Ġgratu itamente
Ġentrar on
Ġmeta f
ĠacompaÃ± ante
å ½
Ġpul sar
i able
ĠCir cuito
Ġdescribe n
Ġmoder ado
Ġacces orio
Ġ> >
ĠRec uerdo
Ġaf ianz
ĠHotel e
Ġeconom ista
Ġmay Ãºsc
ĠâĢ º
ent arÃ¡
ĠMar ÃŃn
Ġur gencias
ĠS ign
ĠmicrÃ³f ono
Ġgrand eza
ĠPre st
Ã¡zar o
Ġgor do
ĠprÃ³x imamente
Ġs w
Ġcorresp ons
Ġactu aliza
Ġnoved oso
s il
ĠIs l
ĠHotele s
ig uraciÃ³n
ĠDi jo
Ġf ull
Ġb aje
Ġrestric ciÃ³n
Ġprest amos
Ġembarc aciones
Ġviaj an
der s
Ġcicl ista
car as
Ġav isos
Ġu va
Ġac ento
Ġvice versa
Ġunan imidad
ĠB s
Ġantic on
Ġorganiz adas
ante ner
Ġfin aliza
ach i
Ġcolch Ã³n
Ġjurispr udencia
Ġexcep cionales
em an
emb ras
rocarb uros
ĠE z
Ġmar atÃ³n
ĠSol id
Ġexist ÃŃan
ĠOper aciones
ĠD O
Ġsilic ona
ĠSal azar
Ġacerc an
Ġtransf erencias
Ġplan ea
Ġev olut
Ġdem o
ĠIm Ã¡genes
Ġp abellÃ³n
Ġconsume n
ust a
ĠV eter
Ġconocer se
!! !!!
P RE
Ġ( -
Ġsalv ajes
ĠE PUB
ĠBan k
Ġev angelio
Ġmen Ãºs
Ġs aci
Ġcontribu ciones
Ġh embra
/ .
Ġlin f
Ġnorte americanos
Ġrob ado
Ġacog er
Ġdevo ciÃ³n
Ġne w
Ġesp ÃŃritus
M Ã¡
V ia
Ġn in
Ġflex ibles
ĠS entencia
Ġsign ificar
ĠdiagnÃ³ st
lo ck
anc ho
Ġder ram
ĠB U
Ġasist iÃ³
Ġencar gÃ³
Ġinvestig adora
Ġord ena
Ġbenefici arse
Ġre ten
Ġr ituales
Ġanot ar
ici da
Ġis lam
Ġexhib e
ĠW ay
Ġ ),
Ġf rio
Ġacum ula
F L
ĠAdri Ã¡n
Ġ Ã¡t
id ero
Ġdiv is
Ġesc apa
Ġases inados
ĠestÃŃm ulos
ĠV elas
Ġvers Ã¡til
Ġres gu
n laz
ĠUN ESCO
Ġagu ac
ve ncia
ĠG h
Ġped ÃŃa
Ġdispar ar
Ġsop orta
Ġprem ium
Ġdiv isiones
T P
ĠB BC
IS A
ĠP LAN
Ġte Ã³rica
Ġle Ã±a
ĠVe h
Ġmarc ados
Ġaur iculares
Ġtre mend
Ġcor aje
Ġguitar rista
g rano
d Ãºo
j eron
Ġestim aciÃ³n
ĠpolÃŃt icamente
Ġagu ja
Ġdistribu idos
Ġw e
d ating
Ġesper ada
Ġfres cas
Ġobses iÃ³n
ĠMor elos
Y O
Ġedi tores
Ġmejor an
Ġval ora
Ã¡ ez
Ġevalu aciones
ĠCor reo
Ġcontin ental
Ġmin orÃŃa
Ġdese ada
Ġaum entos
uj uy
Ġc Ã³r
å ı
ĠInv ierno
ram ientos
Ġproces iÃ³n
Ġsepar adas
Ġjuz gados
Ġinqu ie
Ġaprop iada
Ġacre edores
Ġenf ri
ad ona
ĠL ife
Ġhonest idad
in stein
Ġconden ados
Ġdirect rices
Ġinspir ada
Ġcomenz aba
Ġas amble
ĠComun ista
Ġsient as
V AL
Ġenvi ando
e nlaz
Ġleg ÃŃt
Ġec olÃ³gicos
ĠFor est
Ġdel gada
Ġcaj Ã³n
an Ã©s
h ony
ĠP ack
ĠComp et
Ġsegu iremos
j ada
ones ia
ĠS et
ĠSup ongo
Ġrid ÃŃculo
ĠIn versiÃ³n
âĢ¦ ,
Ġirresp ons
ĠSud amÃ©rica
ĠF igura
nd ido
oc racia
ar k
. Â°
Ġev oc
d esor
Ġtrit ura
Ġprobl emÃ¡ticas
j eras
Ġextra ct
ĠZel anda
ci eron
Ġad vertir
Ġinform amos
Ġn adar
Ã¼ r
di sc
ono zco
Ġlid iar
ĠTribut aria
Ġ _
Ġprest an
Ġagu da
Ġemple ada
ĠdifÃŃcil mente
I m
Ġo dont
Ġingen io
Ġocurr iendo
A E
ĠÐ ½
Ġfemin ista
Ġmedi anas
Ġrespons abiliz
ĠP ala
Ġpas ivo
Ġextraord inarias
Ġdecor ado
ĠautÃ©nt icos
ĠUn as
ĠPar lament
Ġcremall era
Ġcol abora
Ġab at
Ġ dÃºo
gon z
Ġconsol as
Ġaut Ã³ct
le v
Ġapunt ado
Ġinscrib irse
Ġtriun fos
ĠE fe
Ġba hÃŃa
Ġmuch ÃŃsimos
Ġamb iciÃ³n
ĠC iv
Ġbi olÃ³gica
Ġvac unas
T an
M ejor
ĠM isa
Ġesp esor
Ġdisfra ces
ĠCert ificado
Ġaconsej able
Ġve ÃŃan
Ġrecord aba
ĠI bar
Ġdirect as
Ġmanifest ar
Ġmer ecido
Ġvir al
ĠV lad
Â ¬
Ġanticip aciÃ³n
Ġpermit ieron
ĠIngenier o
Ġnaveg ando
ist ado
ĠAr que
ID E
Ġs atura
Ġmat Ã³
Ġim b
Ġexp ed
Ġmer amente
Ġ eros
Ġobjet iva
Ġcompat ibilidad
Ġlid erado
Ġin cul
Ġante pas
Ġab ste
Ġatend ido
rem io
Ġmel anc
Ġindic aciÃ³n
ĠEsp ect
âĢĿ ),
ĠM aya
Ġpract ic
Ġsist emÃ¡tica
ĠProfes ores
C asi
Ġno bles
Ġad h
Ġconse ns
Ġguste n
Ġrepart ir
Ġmanio bras
ĠmetÃ¡l ica
Ġsi embra
Ġsus ur
Ġocas ional
Ġpres ionar
Ã³ j
Ġtelef Ã³nicas
Ã¡ Ã±ez
Ġcruz ado
seÃ± or
Ġestudi Ã³
Ġdorm ido
s echos
ĠfrÃŃ os
Ġejecu ta
Ġo jalÃ¡
ĠResp ecto
Ġ19 50
Ġproc ura
Ġcan ela
ED AD
ï ¸ı
er ie
Ġ enlaz
ĠenseÃ± ado
Ġ9 78
ĠL t
ro ga
Ġso dio
Ġprop iamente
ĠCons ell
Ġgu ionista
e uf
Ġ11 2
Ġdefici encias
Ġel ijas
ĠDemoc rÃ¡tica
Ġcon cedido
ĠS P
Ġproceder Ã¡
ĠfotÃ³graf os
Ġconsec uciÃ³n
Ġespl Ã©nd
Ġcontrad icciÃ³n
Ġaproxim ado
ĠcÃºp ula
ĠTemp lo
Ġin def
Ġproto tipo
ĠP av
c c
Ġb uf
ĠtÃ¡ct il
Ġabunda ntes
Ġlin ks
ĠD ado
Ġemple an
ta g
Ġbi om
Ġdisfru ten
ĠacompaÃ± Ã³
t te
ĠPal m
b ara
ĠSuperinte ndencia
Ġadmit iÃ³
Ġpost s
Ġca iga
Ġg ot
R a
Ġburgue sÃŃa
Ġp onder
Ġlevant ado
Ġfotog rÃ¡fico
ĠCre aciÃ³n
Ġb ob
Ġasequ ible
e sechos
Ġre j
ĠAs soci
d esechos
Ġaf er
D r
ĠA j
rat oria
ĠÐ ¸
um in
ĠCl inton
ont o
id imens
Ġaudi torio
Ġpublicit arios
lic e
ura nt
blog spot
ed as
ĠPR D
Ġestuv ieran
ĠI di
Ġvar Ã³n
ĠW ikipedia
Ġpu Ã±ado
ĠL lo
Ġposit ivamente
ur ce
Ġrecib idas
Ġdiferenci ar
Ġpotenci almente
Ġau sp
Ġescuch Ã³
Ġser ias
ĠA U
ĠCap aci
Ġmultin acional
Ġvers ion
Ġgobern ante
Ġrebaj as
P ue
p ez
k ins
Ġcult ivar
Ġinsufici encia
Ġinter acciones
Ġob ispos
Ġcu raciÃ³n
Ġinici arÃ¡
ĠGol fo
Ġan orm
ĠS qu
Ġtranquil amente
ĠAv iso
ĠL am
ĠP acto
ĠT us
Ġrepresent ada
d ermat
ĠCol o
Ġal usiÃ³n
Ġpe p
Ġp se
Ġpes adilla
Quiz Ã¡s
Ġinfl uyen
Ġor que
Ġca fe
Ġrepubl icanos
ĠÃ© tico
Ġperu anos
m ond
ĠR ab
Ġcr om
Ġtrip ulaciÃ³n
Ġ desor
ĠEst ruc
F ern
Ġcap rich
Ġcomp resiÃ³n
iz aba
ĠX L
Ġdescub rÃŃ
ĠV iena
Ġafirm aciones
ĠH ong
Ġsuav idad
Ġra yo
ĠJ r
h on
Ġprop ag
Ġab ono
Ġfra ter
Ã©st er
ĠV arios
Ġc iego
Ġlig ado
ĠVÃ© lez
Ġpe inado
ran g
Ġseg mentos
Ġviaj Ã³
Ġmin ero
Ġconsult ora
id ent
ĠLu x
Ġocta va
Ot ras
Ġadelant ar
Com enz
Ġbi olÃ³gico
ĠOrig inal
ĠRog er
Ġejerci tar
Ex pl
ĠEsc obar
Ġcr uj
ĠCuent as
ĠenseÃ± Ã³
Ġaprende n
Ġcomun istas
are a
Ġfre nos
Ġterrit oriales
ĠBr uno
Ġlat inos
Ġf lan
Ġtable ta
b ien
Ġ desechos
ĠVal para
Ġamist oso
F und
Ġbol sos
Ġdesc endientes
IDAD ES
S D
Ġpareci era
Ġanfitr iÃ³n
Ġnorm ativas
ĠMe nos
ĠPre f
Ġ197 2
Ġexquis ito
ĠL ice
Ġ erm
er ing
mo nt
Ġgrit ar
Ġconfe sar
Ġparlament aria
Ġafect ando
iÃ©ndo lo
Ãº as
ĠSt udio
nl ace
ig re
s ales
Ġvocab ulario
Ġdel imit
Ġpien se
eci eron
ĠMerc antil
Ġemp ar
z al
Ġexces ivamente
ĠE UR
Ġh ur
Ġman cha
ĠPol ar
ama ul
ĠVit oria
Ġt ech
Ġvel ada
C RI
ĠUrb ano
Ġlab er
ĠN ico
inc Ã³n
ĠAb ierto
Ġrep uesto
ĠTa ilandia
ĠEmbaj ada
Ġmetodo l
ar y
Ġnot ado
Ġadj unt
Ġbenef icia
ĠW in
Ġescult uras
Ġpsic Ã³logo
Ġpres unta
Ġdesp eg
s ion
ĠmolÃ© culas
ĠFront era
ĠRoc ÃŃo
Ġmur ci
Ġcat ar
ĠF res
ĠH ierro
Ġrebel iÃ³n
Ġsemin arios
Ġenc omend
ĠT ij
Ġcaus ados
ĠE res
P roduc
Ġsusc rito
Ġliqu idez
Ġpe gado
Ġorient ar
Ġsu ba
ĠLa w
ĠÃį ndice
ĠÃŃnt ima
Ġpres untos
Ġma go
Ġviv ÃŃan
emp os
Ġs am
ĠPad res
Ġ esl
Ġsac arle
ĠS M
ul um
art s
ĠG imnas
ĠRes ulta
d esci
ĠAQU Ãį
ida y
Ġocta vo
Ġpor terÃŃa
Ġelev adas
Ġpl Ã¡t
Ġconserv ador
Ġpar ciales
est ado
R C
ĠM ut
Ġgener osidad
Ġexte nsiones
ĠSal inas
Ġform ados
ĠInt erc
Ġdel gado
d entales
Ġelect rom
Ġdef endido
ug by
Ġva is
Ġcomb ates
Ġmanual idades
ore nse
pa go
ĠEsc al
Ġpu reza
Ġab on
Ġgest aciÃ³n
Ġsusc rib
Ġma x
vid entemente
ĠResult ados
Rec uerda
Ġguer rill
Ġfest ivos
Ġf os
Ġvay amos
ĠC IA
Ġgrad ualmente
ĠaerolÃŃ nea
ĠVol kswagen
Ġsu pe
unt er
Ġmar chas
Ġjo venes
Ġempez aba
Ġexpres an
Ġincrem entado
ĠTech n
Ġconviv ir
Ġat leta
Ġestim ulaciÃ³n
Ġac os
Ġaudi encias
Ġescribe n
ĠFuer te
on gan
ĠD OC
ran za
ĠEv entos
ĠGab inete
say uno
u ada
Ġan on
p ap
Ġmad uro
act iva
Ġaje nas
Ġinv est
ĠH ubo
Ġtermin aciÃ³n
ĠN elson
Ġb end
Ġaconse ja
ĠF lam
Ġop inar
ec edor
Ġfun dadores
OR IA
ĠGRA TIS
ĠAu gusto
Ġincl uya
os amente
ĠW ork
l la
Ġvalent ÃŃa
Ġsospechos o
ĠAudi torio
N uevo
ĠC le
Ġant aÃ±o
Ġgastron Ã³mica
m ejor
Ġalcanz ando
Ġhici ste
& #
Ġderiv ada
ight s
? âĢĿ.
Ġconc urs
ci onen
Ġhacer los
Ġfun er
B ook
Ġam az
Ġre h
Ġperse guir
ĠS N
natur al
ĠPer f
ĠS anz
Ġdeclar ada
ON ES
Ġrequer ir
Ġelimin ando
Ġelect r
Ġun ida
Ġcor dÃ³n
an Ã¡lisis
Ġcal aba
Ġcorpor ativo
cios a
ĠB asta
Ġc and
M at
H abl
Ġcorte za
ust on
Ã©n esis
im ir
Ġp ila
Ġcubre n
Ġdescubr iendo
Ġsoci almente
Ġaisl ado
Ġvac as
f amil
S cript
b oy
n ados
ĠG ente
ĠHer ramientas
Ġequip ar
Ġdel ic
ĠEnferm erÃŃa
Ġaprob ados
Ġt ribu
S tar
Ġaver ÃŃas
Ġ desci
Ġg it
ĠDe ad
t aban
Ġdif und
ĠFlore ncia
Ġser piente
s un
Ġace it
ĠCentro amÃ©rica
D eja
ĠN Ã©stor
Ġindi a
ine tes
ens as
d d
ĠIn fo
Ġ11 5
cion arios
int iÃ³
Ġ dam
B ER
Ġdesconoci miento
Ġrev al
Ġefectu ado
ĠE ran
d ÃŃg
al los
Ġcort ado
Ġsan eamiento
Ġmir an
Ġacondi cion
Ġejecut ado
Ġs l
Ġtan ques
Ġintent aba
ĠR as
Ġni Ã±
et r
Ġun iÃ³
Ġaplic arse
Ġsu yas
Ġmetodolog ÃŃas
ĠAp art
Ġsuminist ros
ĠDra gon
Ġb ell
â ĸ
ĠBach illerato
ĠTall eres
Ġacus Ã³
ĠR ick
Ġindi o
H erm
P OS
Ġsobre car
Ġsimb Ã³lico
@@@@ @@@@
ĠArro yo
Ġsustent able
Ġanaliz ando
Ġb onaere
Ġveter ano
Ġt icket
ĠNatal ia
ĠX IV
Ġurg entes
U ES
Ġsec undar
Ġparlament arios
Ġterc eras
Ġ dÃŃ
Ġcontribu ido
Ġdesplaz amientos
Ġtransc urrido
Ġinjust o
Ġleg ÃŃtimo
Ġk ilo
Ġgir os
Ġvul gar
Ġjoy erÃŃa
is cal
ĠB ang
ĠD un
Ġmart illo
Ġeng ran
Ġgay s
Ġob rera
ci sco
Ġgras os
Ġencuent res
ĠCer ca
ĠE th
ĠVis ita
ĠRel ig
Ã©t rica
ÃŃge nas
Ġl un
Ġfi jas
il ancia
Ġcar gada
Ġvis a
Ġimp iden
Ġv Ã©rt
Ġmusc ulares
Ġ dermat
Ġrepro duci
et y
ĠcÃ³m ics
Ġabst rac
Ġdra gÃ³n
ĠGin ebra
Ġsu ceda
Ġ dating
ĠEl ÃŃas
Ġinci so
ĠC ENT
Ġrecomend ada
Ġquer iendo
Ġpl umas
ĠArt ÃŃculos
ho use
ur met
Ġvale n
Z O
ĠAlej andra
cas i
Jes Ãºs
ĠRe nov
ĠCu anto
ones as
Ġla min
s gu
Ġmanten ÃŃa
Ġpubl ican
Ġtel esc
ĠC loud
Ġdisfrut amos
ĠApar te
ĠPlan eta
ĠCir ugÃŃa
Ġtempor almente
Ġespir al
Ġac lara
Ġatmos f
H D
ĠÃ© ramos
Ġve is
ĠCeci lia
Ġut ilidades
Emp resa
ĠPresup uestos
Ġre tener
Ġprel iminar
ritur adoras
ĠDis co
Ġmale tas
ĠBos que
Ġint r
in fo
Ġbuc eo
Ġdefin iciones
Ġpregunt Ã©
Ġsometer se
Ar ch
Ġmic rob
Ġtrad ucido
ĠE uros
Ġcoloc an
Ġaspira nte
ĠEst ilo
ĠÃģ r
Ġsucede n
Ġcal m
Ġextra terrest
Ġsab io
Ġv ivas
Ġact rices
Ġf og
Ġentregar on
ĠO blig
Ġmonit ores
Ġp up
Ġla zo
Ġtit ulaciÃ³n
or an
ĠTar jeta
ĠCatal ina
av os
Ġvis iones
Ġab astecimiento
Ġencabez ado
dad ura
ĠUN AM
Ġhuman itaria
Ġdest inar
it Ã©s
uent os
Ġgener ados
st edes
ÃŃcul um
re na
Ġarm arios
ĠSosten ible
od amente
ĠCu arto
ĠBar ack
ill erÃŃa
Ġre quieran
Ġcora zon
Ġinform ativos
ĠTe orÃŃa
Ġsan gr
Ġdiv orci
Ġconduci do
ambi ente
ĠC ielo
r idge
Ġtex t
ĠEnc ar
ĠcadÃ¡ veres
ĠF ig
Ġpura mente
ĠC ano
Un iversidad
Ġsufr ieron
Ġolv ide
Ġque br
m ia
: .
Ġprest e
ĠApl icaciones
im enta
Ġo ct
ĠReg ist
Ġla guna
ici ar
it ando
Ġsent ada
ĠPers onales
Ġenrique cer
ĠE fect
a ga
Ġdin osa
Ġan este
AN D
Ġpersonal izaciÃ³n
Ġmuel le
so y
Ġv ener
Ġesta fa
ĠMej ores
ip sis
Ġ euf
ĠAgr ad
Ġrelaj ante
ĠS iendo
Ġinaug urado
Ġtrim est
Ġconstitu ida
ere na
ĠL Ã¡zaro
ost ela
Ġsim ulaciÃ³n
Ġest abiliz
ĠQu ijote
Ġm onasterio
ĠEMP RES
Ġb in
Ġdi ar
Ġ24 0
ĠKe nn
ĠCom par
Ġocup ados
a hu
Ġhe bre
Ġamino Ã¡
Dise Ã±o
t ismo
Ġle ido
Ġl Ã¡stima
Ġinaug ura
IL L
Medi ante
Ġque sos
Ġtatu ajes
ĠAF P
ĠV eci
ĠHa w
Ġlin das
Ġcre as
Ġ Ã©s
ine a
Ġapa gar
Ġmarc ando
ĠPrim avera
Ġdef endiÃ³
ĠAb el
ĠAgr up
Ġresulta nte
Ġ enhorabuena
ĠLegisl atura
ult ado
gu erra
f ue
ĠAudi tor
ĠV ial
Ġaprovech ado
ĠMob ile
Ġdisc apaci
ĠD T
la va
Ġu tens
Ġestable zca
- Â¿
ĠMay ores
Ġinvers or
Ġconserv an
Ġocta vos
Ġop ina
Ġladr illo
Ġ15 00
fr adÃŃa
ĠHern Ã¡n
Ġ dentales
efici ente
f obia
Ġcal ificaciones
ĠMana gement
ĠPod rÃŃa
Ġsobre peso
ĠCas ino
Ġencont rando
Ġc ib
Ġnubl ado
Res oluciÃ³n
Ġpas ara
Ġreflej ado
Ġdef ienden
Ġtransfer ir
r ust
Ġest ables
Ġnaci da
Ġtraves ÃŃa
Ġrique zas
Ġesp ejos
Ġ3 000
ĠC itas
Ġinter loc
Ġpermitir ÃŃa
Ġagres ivo
eb o
Ġcar naval
Me n
ĠC ER
Ġ uc
Ġestat utos
Ġtrat amos
Ġf ilo
= =
Ġabr ieron
Ġan alizado
Ġlogra mos
tor rique
Ġinvestig ando
Ġtir ada
ĠprohÃŃ be
ĠKe n
Ġsuper p
ĠR odolfo
Ġg ad
me ns
ĠSo uth
H S
C onoce
Ġactiv ista
ĠAn exo
Ġcas era
Ġrendi mientos
Ġesc ucho
Ġpy mes
Ġadquir iÃ³
ĠCro acia
Ġfl ore
ip iÃ©
Ġab onar
ĠEx po
Ġt ambi
Ġreal ismo
Part icip
ĠSe at
ĠA costa
Ġpromet iÃ³
Ġante na
Ã¡ rate
Ġens amb
S Ã©
Ġform almente
icios os
ĠhistÃ³r icamente
Ġenam orada
k t
ĠmÃ¡r genes
Ġcar ecen
ĠIs land
ĠS C
ime s
Ġco he
ĠL IB
Ã «
M ont
Ġemp aque
Ġcontrad icciones
Ġtar ot
Ġer Ã³ticos
otos hop
Ġcor dob
Ġcab ida
Ġres ume
Ġfir mes
ĠT erm
Ġ dÃŃg
Ġsup resiÃ³n
Ġar om
Ġutiliz o
Ġarre b
ĠNuev os
Ġpareci dos
iel e
Ġzap at
ĠF la
Ġhin chas
ĠG av
b s
Ã©r f
Ġvac antes
H az
D av
F un
ĠPotos ÃŃ
w is
Ġcine asta
Ġpat entes
AD AS
Ġentre gados
aliz arse
Ġtransform ado
Ñ ħ
ĠConce jal
Ġacum ular
Ġguitar ras
Ġart ÃŃsticos
ĠG O
Ġdec ente
ĠN ave
ĠaÃ© reas
Ġpres cindi
ĠS IM
Ġanunci aron
Ġnacional ismo
que sa
Ã³n gase
Ġs n
Ġdoctor ado
ĠJ ob
Ġresp eta
r illas
Ġdesp oj
Ġceleb r
Ġdecir les
Ġprestig ioso
Ġ196 9
Ġcu ida
Z ap
Ġh rs
Ġmarc adores
ĠR ED
Ġdi osa
Ġp ilar
" ).
ĠR ece
Ġnerv iosa
Ġsub venciÃ³n
Ġinvoluc rado
Ġval er
ĠHa ga
Ġa na
Ġvulner able
w ich
ĠM Ãī
Ġcom andos
Ġobt uvieron
ĠTransp ortes
Ġenfat izÃ³
Ġ196 7
ul co
ĠDar ÃŃo
m Ã¡
ĠAr g
Ġdespre cio
Ġtelef ono
Ġconvenci dos
Ġinfin ita
Ġsolici te
Ġp ud
OL OG
Ġescrib ÃŃ
ĠL imit
Ġel abora
Ġtermin ada
ent ido
Ġop cional
Ġbal anza
c erÃŃa
Ġdi ur
Ġcel da
m uj
ĠT ercer
Ġregener aciÃ³n
Ġalim enta
Ġma f
ĠRom ano
Ġgr ises
Ġincorpor an
Ġdirige n
Ġinici aciÃ³n
alo a
ĠR onda
am po
Ġconstru idos
ĠDesc arga
Ġoptim ista
ĠF ARC
Ġse quÃŃa
co pa
it ivamente
G AR
Ġtable ts
Ġexten diÃ³
Ġfres cura
ĠVar ela
Ġdel iber
Ġenc amin
Ġcu at
Ġdisput arÃ¡
Ġgan aderÃŃa
Ġenvi ada
ucar istÃŃa
Ġdem ol
Ġconmem oraciÃ³n
Ġbo letÃŃn
ĠS af
Ġap unto
Ġl i
Ġinstal ados
Ġc era
Ġcr ÃŃa
Ġinvit an
Ġapunt ar
e ven
Ġan omal
Ġin sos
ros as
gaz ine
Ġautor iza
Ġdefin iÃ³
Ġespecif ica
Ġrefer ida
Ġestad ÃŃa
ĠProcedi miento
b ell
p lay
Ġjub ilados
c aj
Ġsuces or
ol las
Ġorden ada
Ġdeg ener
nt os
Ġcotid ianas
ĠAl tern
Ġn ic
Ġinv ento
Ġcan je
le nde
Ġfantas ÃŃas
n Ã©r
Ġllegar ÃŃa
ĠTay lor
Ġat l
ĠF an
ĠOper aciÃ³n
Ġ" Â¡
T ener
ri k
Ġdi ri
is i
Al guien
Ã© e
Ġproy ecta
ĠBue nas
ec ten
Ġrecre aciÃ³n
Ġmanej an
Ġjust ific
ĠGabri ela
Ġindic ados
Ġvi uda
ĠRies gos
Ġro tura
ĠC orp
Ġdue Ã±a
Ġb ruto
ĠIl l
Ġsube n
ĠSp orts
Ġencab eza
ĠNo kia
Ġinter s
Ġrecept ores
Int er
Ġengan ch
ĠdomÃ©st ica
ĠHerm anos
Ġdescubre n
Ġh ex
P H
[...]
